{
 "0": 0,
 "1": 1,
 "2": 2,
 "3": 3,
 "4": 4,
 "5": 5,
 "6": 6,
 "7": 7,
 "8": 8,
 "9": 9,
 "a": 10,
 "b": 11,
 "c": 12,
 "d": 13,
 "e": 14,
 "f": 15,
 "g": 16,
 "h": 17,
 "i": 18,
 "j": 19,
 "k": 20,
 "l": 21,
 "m": 22,
 "n": 23,
 "o": 24,
 "p": 25,
 "q": 26,
 "r": 27,
 "s": 28,
 "t": 29,
 "u": 30,
 "v": 31,
 "w": 32,
 "x": 33,
 "y": 34,
 "z": 35,
 "ª": 36,
 "á": 37,
 "â": 38,
 "é": 39,
 "í": 40,
 "ñ": 41,
 "ó": 42,
 "ö": 43,
 "ú": 44,
 "ü": 45,
 "ā": 46,
 "ī": 47,
 "ś": 48,
 "ū": 49,
 "ɑ": 50,
 "ə": 51,
 "ɦ": 52,
 "ɪ": 53,
 "ɾ": 54,
 "ʊ": 55,
 "ʌ": 56,
 "ʱ": 57,
 "ˈ": 58,
 "ː": 59,
 "̪": 60,
 "ί": 61,
 "α": 62,
 "δ": 63,
 "ι": 64,
 "ν": 65,
 "ο": 66,
 "ς": 67,
 "ό": 68,
 "अ": 69,
 "अं": 70,
 "आ": 71,
 "आं": 72,
 "इ": 73,
 "इं": 74,
 "इ़": 75,
 "ई": 76,
 "ईं": 77,
 "उ": 78,
 "उं": 79,
 "ऊ": 80,
 "ऊँ": 81,
 "ऊं": 82,
 "ऋ": 83,
 "ए": 84,
 "एँ": 85,
 "एं": 86,
 "ऐ": 87,
 "ऐं": 88,
 "ऑ": 89,
 "ओ": 90,
 "ओं": 91,
 "औ": 92,
 "क": 93,
 "कं": 94,
 "का": 95,
 "कां": 96,
 "कि": 97,
 "किं": 98,
 "की": 99,
 "कु": 100,
 "कू": 101,
 "कृ": 102,
 "के": 103,
 "कें": 104,
 "कै": 105,
 "कॉ": 106,
 "कॉं": 107,
 "को": 108,
 "कों": 109,
 "क्": 110,
 "क्के": 111,
 "क्क्न": 112,
 "क्ट": 113,
 "क्टू": 114,
 "क्त": 115,
 "क्ता": 116,
 "क्ति": 117,
 "क्यों": 118,
 "क्र": 119,
 "क्रां": 120,
 "क्रि": 121,
 "क्री": 122,
 "क्लि": 123,
 "क्श": 124,
 "क्ष": 125,
 "क्षा": 126,
 "क्षि": 127,
 "क्षी": 128,
 "क्षु": 129,
 "क्षे": 130,
 "क्ष्य": 131,
 "क्स": 132,
 "ख": 133,
 "खं": 134,
 "खा": 135,
 "खि": 136,
 "खी": 137,
 "खु": 138,
 "खू": 139,
 "खे": 140,
 "खें": 141,
 "खो": 142,
 "ख्न": 143,
 "ख्य": 144,
 "ख्या": 145,
 "ख्यि": 146,
 "ग": 147,
 "गं": 148,
 "ग़": 149,
 "गा": 150,
 "गाँ": 151,
 "गां": 152,
 "गि": 153,
 "गी": 154,
 "गु": 155,
 "गू": 156,
 "गे": 157,
 "गै": 158,
 "गो": 159,
 "गों": 160,
 "गौ": 161,
 "ग्य": 162,
 "ग्र": 163,
 "ग्रं": 164,
 "ग्रा": 165,
 "ग्री": 166,
 "ग्रु": 167,
 "ग्रे": 168,
 "ग्ला": 169,
 "ग्वे": 170,
 "घ": 171,
 "घा": 172,
 "घि": 173,
 "घी": 174,
 "घु": 175,
 "घू": 176,
 "घो": 177,
 "च": 178,
 "चं": 179,
 "चा": 180,
 "चि": 181,
 "ची": 182,
 "चु": 183,
 "चू": 184,
 "चे": 185,
 "चें": 186,
 "चै": 187,
 "चो": 188,
 "चों": 189,
 "चौ": 190,
 "च्च": 191,
 "च्चा": 192,
 "च्छा": 193,
 "च्छी": 194,
 "च्छु": 195,
 "च्छे": 196,
 "छ": 197,
 "छा": 198,
 "छू": 199,
 "छे": 200,
 "छो": 201,
 "ज": 202,
 "जं": 203,
 "ज़": 204,
 "ज़ी": 205,
 "ज़्या": 206,
 "जा": 207,
 "जि": 208,
 "जी": 209,
 "जु": 210,
 "जू": 211,
 "जें": 212,
 "जै": 213,
 "जो": 214,
 "जों": 215,
 "ज्ञा": 216,
 "ज्य": 217,
 "ज्या": 218,
 "ज्यी": 219,
 "ज्यु": 220,
 "ज्यों": 221,
 "झ": 222,
 "झा": 223,
 "झु": 224,
 "झे": 225,
 "झौ": 226,
 "ट": 227,
 "टा": 228,
 "टि": 229,
 "टी": 230,
 "टे": 231,
 "टें": 232,
 "टों": 233,
 "ट्टा": 234,
 "ट्य": 235,
 "ट्रो": 236,
 "ठ": 237,
 "ठं": 238,
 "ठा": 239,
 "ठि": 240,
 "ठी": 241,
 "ड": 242,
 "ड़": 243,
 "ड़ा": 244,
 "ड़ि": 245,
 "ड़ी": 246,
 "ड़े": 247,
 "ड़ें": 248,
 "ड़ो": 249,
 "ड़ों": 250,
 "डा": 251,
 "डां": 252,
 "डि": 253,
 "डी": 254,
 "डु": 255,
 "डे": 256,
 "डॉ": 257,
 "डो": 258,
 "ड्य": 259,
 "ड्यों": 260,
 "ढ": 261,
 "ढ़": 262,
 "ढ़ा": 263,
 "ढ़ो": 264,
 "ढा": 265,
 "ढाँ": 266,
 "ढां": 267,
 "ढि": 268,
 "ण": 269,
 "णा": 270,
 "णि": 271,
 "णी": 272,
 "णु": 273,
 "ण्ड": 274,
 "ण्डि": 275,
 "ण्ण": 276,
 "त": 277,
 "तं": 278,
 "तः": 279,
 "ता": 280,
 "तां": 281,
 "ति": 282,
 "ती": 283,
 "तीं": 284,
 "तु": 285,
 "तृ": 286,
 "ते": 287,
 "तें": 288,
 "तो": 289,
 "तों": 290,
 "तौ": 291,
 "त्का": 292,
 "त्कृ": 293,
 "त्ख": 294,
 "त्त": 295,
 "त्ता": 296,
 "त्ति": 297,
 "त्ती": 298,
 "त्थ": 299,
 "त्था": 300,
 "त्न": 301,
 "त्प": 302,
 "त्पा": 303,
 "त्म": 304,
 "त्मा": 305,
 "त्मि": 306,
 "त्य": 307,
 "त्यं": 308,
 "त्या": 309,
 "त्यु": 310,
 "त्ये": 311,
 "त्यों": 312,
 "त्यौ": 313,
 "त्र": 314,
 "त्रा": 315,
 "त्रि": 316,
 "त्री": 317,
 "त्रु": 318,
 "त्रों": 319,
 "त्व": 320,
 "त्वों": 321,
 "त्‍त": 322,
 "त्‍व": 323,
 "थ": 324,
 "था": 325,
 "थि": 326,
 "थी": 327,
 "थीं": 328,
 "थे": 329,
 "थ्या": 330,
 "द": 331,
 "दं": 332,
 "दा": 333,
 "दि": 334,
 "दी": 335,
 "दु": 336,
 "दू": 337,
 "दृ": 338,
 "दे": 339,
 "दें": 340,
 "दो": 341,
 "दों": 342,
 "दौ": 343,
 "द्": 344,
 "द्दे": 345,
 "द्दों": 346,
 "द्ध": 347,
 "द्धि": 348,
 "द्धों": 349,
 "द्भा": 350,
 "द्य": 351,
 "द्यो": 352,
 "द्र": 353,
 "द्रा": 354,
 "द्रि": 355,
 "द्री": 356,
 "द्रो": 357,
 "द्वा": 358,
 "द्वि": 359,
 "द्वी": 360,
 "द्वे": 361,
 "ध": 362,
 "धा": 363,
 "धि": 364,
 "धी": 365,
 "धु": 366,
 "धे": 367,
 "धो": 368,
 "धों": 369,
 "ध्द": 370,
 "ध्य": 371,
 "ध्या": 372,
 "ध्रु": 373,
 "न": 374,
 "नं": 375,
 "ना": 376,
 "नां": 377,
 "नि": 378,
 "नी": 379,
 "नीं": 380,
 "नु": 381,
 "नू": 382,
 "नृ": 383,
 "ने": 384,
 "नै": 385,
 "नो": 386,
 "नों": 387,
 "नौ": 388,
 "न्": 389,
 "न्टा": 390,
 "न्त": 391,
 "न्ति": 392,
 "न्तु": 393,
 "न्तु्": 394,
 "न्त्र": 395,
 "न्त्रि": 396,
 "न्त्री": 397,
 "न्द": 398,
 "न्दी": 399,
 "न्दु": 400,
 "न्दू": 401,
 "न्दो": 402,
 "न्द्र": 403,
 "न्द्रा": 404,
 "न्द्री": 405,
 "न्ध": 406,
 "न्धु": 407,
 "न्न": 408,
 "न्नौ": 409,
 "न्म": 410,
 "न्मा": 411,
 "न्मी": 412,
 "न्मों": 413,
 "न्य": 414,
 "न्या": 415,
 "न्यू": 416,
 "न्स्ट": 417,
 "न्हीं": 418,
 "न्हे": 419,
 "न्हें": 420,
 "न्हों": 421,
 "प": 422,
 "पं": 423,
 "पा": 424,
 "पाँ": 425,
 "पां": 426,
 "पि": 427,
 "पी": 428,
 "पीं": 429,
 "पु": 430,
 "पू": 431,
 "पूं": 432,
 "पे": 433,
 "पें": 434,
 "पै": 435,
 "पैं": 436,
 "पॉ": 437,
 "पो": 438,
 "पों": 439,
 "प्ट": 440,
 "प्त": 441,
 "प्ति": 442,
 "प्प": 443,
 "प्पा": 444,
 "प्य": 445,
 "प्र": 446,
 "प्रा": 447,
 "प्रि": 448,
 "प्रे": 449,
 "प्रै": 450,
 "प्रौ": 451,
 "प्ला": 452,
 "प्ले": 453,
 "फ": 454,
 "फ़": 455,
 "फ़ि": 456,
 "फ़ी": 457,
 "फ़े": 458,
 "फ़्": 459,
 "फ़्ट": 460,
 "फा": 461,
 "फि": 462,
 "फु": 463,
 "फू": 464,
 "फे": 465,
 "फै": 466,
 "फ्राँ": 467,
 "फ्रां": 468,
 "फ्री": 469,
 "ब": 470,
 "बँ": 471,
 "बं": 472,
 "बा": 473,
 "बाँ": 474,
 "बां": 475,
 "बि": 476,
 "बी": 477,
 "बु": 478,
 "बू": 479,
 "बे": 480,
 "बें": 481,
 "बै": 482,
 "बैं": 483,
 "बॉ": 484,
 "बो": 485,
 "बौ": 486,
 "ब्द": 487,
 "ब्दी": 488,
 "ब्ब": 489,
 "ब्बि": 490,
 "ब्र": 491,
 "ब्रि": 492,
 "ब्लि": 493,
 "भ": 494,
 "भं": 495,
 "भा": 496,
 "भां": 497,
 "भि": 498,
 "भी": 499,
 "भु": 500,
 "भू": 501,
 "भे": 502,
 "भो": 503,
 "भौ": 504,
 "भ्य": 505,
 "भ्र": 506,
 "म": 507,
 "मं": 508,
 "मा": 509,
 "मां": 510,
 "मि": 511,
 "मी": 512,
 "मु": 513,
 "मुं": 514,
 "मू": 515,
 "मृ": 516,
 "मे": 517,
 "में": 518,
 "में‌": 519,
 "मै": 520,
 "मो": 521,
 "मों": 522,
 "मौ": 523,
 "म्न": 524,
 "म्प": 525,
 "म्पू": 526,
 "म्प्र": 527,
 "म्ब": 528,
 "म्बि": 529,
 "म्बे": 530,
 "म्भ": 531,
 "म्भि": 532,
 "म्म": 533,
 "म्मि": 534,
 "म्य": 535,
 "म्या": 536,
 "म्यां": 537,
 "म्यु": 538,
 "म्र": 539,
 "म्रा": 540,
 "म्‍ब": 541,
 "य": 542,
 "यं": 543,
 "या": 544,
 "याँ": 545,
 "यां": 546,
 "यि": 547,
 "यी": 548,
 "यु": 549,
 "यू": 550,
 "ये": 551,
 "यें": 552,
 "यो": 553,
 "यों": 554,
 "र": 555,
 "रं": 556,
 "रा": 557,
 "रि": 558,
 "रिं": 559,
 "री": 560,
 "रु": 561,
 "रू": 562,
 "रे": 563,
 "रें": 564,
 "रो": 565,
 "रोँ": 566,
 "रों": 567,
 "र्क": 568,
 "र्ग": 569,
 "र्गी": 570,
 "र्घ": 571,
 "र्च": 572,
 "र्चा": 573,
 "र्चे": 574,
 "र्ज": 575,
 "र्ज़": 576,
 "र्ज़ा": 577,
 "र्जा": 578,
 "र्जि": 579,
 "र्ट": 580,
 "र्टि": 581,
 "र्टी": 582,
 "र्ण": 583,
 "र्णि": 584,
 "र्त": 585,
 "र्ता": 586,
 "र्ति": 587,
 "र्थ": 588,
 "र्थि": 589,
 "र्थी": 590,
 "र्द": 591,
 "र्द्ध": 592,
 "र्ध": 593,
 "र्धा": 594,
 "र्ना": 595,
 "र्फ़": 596,
 "र्भ": 597,
 "र्म": 598,
 "र्मा": 599,
 "र्मि": 600,
 "र्मी": 601,
 "र्मों": 602,
 "र्य": 603,
 "र्या": 604,
 "र्र": 605,
 "र्रा": 606,
 "र्व": 607,
 "र्वं": 608,
 "र्वा": 609,
 "र्वां": 610,
 "र्वी": 611,
 "र्वो": 612,
 "र्श": 613,
 "र्ष": 614,
 "र्षा": 615,
 "र्षि": 616,
 "र्षों": 617,
 "र्स": 618,
 "ल": 619,
 "लं": 620,
 "ला": 621,
 "लाँ": 622,
 "लां": 623,
 "लि": 624,
 "लिं": 625,
 "ली": 626,
 "लीं": 627,
 "लु": 628,
 "लू": 629,
 "ले": 630,
 "लै": 631,
 "लैं": 632,
 "लॉ": 633,
 "लो": 634,
 "लों": 635,
 "लौ": 636,
 "ल्कि": 637,
 "ल्ट": 638,
 "ल्टा": 639,
 "ल्टी": 640,
 "ल्त": 641,
 "ल्प": 642,
 "ल्पा": 643,
 "ल्म": 644,
 "ल्में": 645,
 "ल्य": 646,
 "ल्या": 647,
 "ल्यों": 648,
 "ल्ली": 649,
 "ल्ले": 650,
 "ल्ल्वों": 651,
 "ल्सि": 652,
 "ल्‍प": 653,
 "व": 654,
 "वं": 655,
 "वा": 656,
 "वाँ": 657,
 "वि": 658,
 "विं": 659,
 "वी": 660,
 "वीं": 661,
 "वृ": 662,
 "वे": 663,
 "वें": 664,
 "वै": 665,
 "वों": 666,
 "व्य": 667,
 "व्यं": 668,
 "व्या": 669,
 "व्यु": 670,
 "व्र": 671,
 "व्‍या": 672,
 "श": 673,
 "शः": 674,
 "शा": 675,
 "शां": 676,
 "शि": 677,
 "शी": 678,
 "शु": 679,
 "शृं": 680,
 "शे": 681,
 "शै": 682,
 "शो": 683,
 "शों": 684,
 "श्चि": 685,
 "श्मी": 686,
 "श्य": 687,
 "श्र": 688,
 "श्रि": 689,
 "श्री": 690,
 "श्रे": 691,
 "श्व": 692,
 "श्वं": 693,
 "श्वि": 694,
 "श्वी": 695,
 "श्‍यी": 696,
 "ष": 697,
 "षा": 698,
 "षि": 699,
 "षी": 700,
 "षों": 701,
 "ष्क": 702,
 "ष्का": 703,
 "ष्ट": 704,
 "ष्टा": 705,
 "ष्टि": 706,
 "ष्ट्र": 707,
 "ष्ट्री": 708,
 "ष्ट्रे": 709,
 "ष्ट्रों": 710,
 "ष्ठ": 711,
 "ष्ठि": 712,
 "ष्ण": 713,
 "ष्णा": 714,
 "ष्णु": 715,
 "ष्म": 716,
 "ष्य": 717,
 "स": 718,
 "सं": 719,
 "सा": 720,
 "सां": 721,
 "सि": 722,
 "सिं": 723,
 "सी": 724,
 "सु": 725,
 "सू": 726,
 "सृ": 727,
 "से": 728,
 "सै": 729,
 "सॉ": 730,
 "सो": 731,
 "सों": 732,
 "सौ": 733,
 "स्कृ": 734,
 "स्क्री": 735,
 "स्ट": 736,
 "स्टॉ": 737,
 "स्ट्रे": 738,
 "स्त": 739,
 "स्ता": 740,
 "स्ति": 741,
 "स्तु": 742,
 "स्तृ": 743,
 "स्ते": 744,
 "स्त्र": 745,
 "स्त्रि": 746,
 "स्त्री": 747,
 "स्थ": 748,
 "स्था": 749,
 "स्थि": 750,
 "स्प": 751,
 "स्म": 752,
 "स्य": 753,
 "स्यों": 754,
 "स्रो": 755,
 "स्ला": 756,
 "स्लि": 757,
 "स्व": 758,
 "स्वी": 759,
 "स्सा": 760,
 "स्सों": 761,
 "ह": 762,
 "हा": 763,
 "हाँ": 764,
 "हां": 765,
 "हि": 766,
 "हिं": 767,
 "ही": 768,
 "हीं": 769,
 "हु": 770,
 "हुँ": 771,
 "हू": 772,
 "हे": 773,
 "है": 774,
 "हैं": 775,
 "हॉ": 776,
 "हो": 777,
 "हों": 778,
 "ह्म": 779,
 "०": 780,
 "१": 781,
 "२": 782,
 "३": 783,
 "४": 784,
 "५": 785,
 "६": 786,
 "७": 787,
 "८": 788,
 "९": 789,
 "అ": 790,
 "అం": 791,
 "ఆ": 792,
 "ఆం": 793,
 "ఇ": 794,
 "ఇం": 795,
 "ఈ": 796,
 "ఉ": 797,
 "ఉం": 798,
 "ఋ": 799,
 "ఎ": 800,
 "ఎం": 801,
 "ఏ": 802,
 "ఐ": 803,
 "ఒ": 804,
 "ఓ": 805,
 "ఔ": 806,
 "క": 807,
 "కం": 808,
 "కా": 809,
 "కాం": 810,
 "కి": 811,
 "కిం": 812,
 "కీ": 813,
 "కు": 814,
 "కుం": 815,
 "కూ": 816,
 "కృ": 817,
 "కె": 818,
 "కే": 819,
 "కేం": 820,
 "కొ": 821,
 "కో": 822,
 "క్": 823,
 "క్క": 824,
 "క్కు": 825,
 "క్కొ": 826,
 "క్టో": 827,
 "క్త": 828,
 "క్తి": 829,
 "క్తు": 830,
 "క్నా": 831,
 "క్య": 832,
 "క్యం": 833,
 "క్యా": 834,
 "క్యు": 835,
 "క్ర": 836,
 "క్రాం": 837,
 "క్రి": 838,
 "క్రీ": 839,
 "క్రై": 840,
 "క్ష": 841,
 "క్షం": 842,
 "క్షి": 843,
 "క్‌": 844,
 "క్‌స": 845,
 "ఖ": 846,
 "ఖం": 847,
 "ఖా": 848,
 "ఖి": 849,
 "ఖో": 850,
 "ఖ్య": 851,
 "ఖ్యం": 852,
 "ఖ్యా": 853,
 "గ": 854,
 "గం": 855,
 "గా": 856,
 "గాం": 857,
 "గి": 858,
 "గిం": 859,
 "గీ": 860,
 "గు": 861,
 "గృ": 862,
 "గె": 863,
 "గే": 864,
 "గో": 865,
 "గౌ": 866,
 "గ్": 867,
 "గ్గ": 868,
 "గ్గి": 869,
 "గ్డ": 870,
 "గ్నే": 871,
 "గ్భా": 872,
 "గ్రం": 873,
 "గ్రా": 874,
 "గ్రాం": 875,
 "గ్రీ": 876,
 "గ్రె": 877,
 "గ్లం": 878,
 "గ్లా": 879,
 "గ్లీ": 880,
 "గ్లే": 881,
 "ఘ": 882,
 "ఘి": 883,
 "ఘు": 884,
 "ఘో": 885,
 "చ": 886,
 "చం": 887,
 "చా": 888,
 "చి": 889,
 "చిం": 890,
 "చీ": 891,
 "చు": 892,
 "చూ": 893,
 "చె": 894,
 "చెం": 895,
 "చే": 896,
 "చై": 897,
 "చో": 898,
 "చ్చ": 899,
 "చ్చి": 900,
 "చ్చిం": 901,
 "చ్చు": 902,
 "చ్చే": 903,
 "చ్ఛా": 904,
 "జ": 905,
 "జం": 906,
 "జా": 907,
 "జి": 908,
 "జీ": 909,
 "జు": 910,
 "జూ": 911,
 "జెం": 912,
 "జై": 913,
 "జో": 914,
 "జౌ": 915,
 "జ్": 916,
 "జ్ఞా": 917,
 "జ్య": 918,
 "జ్యం": 919,
 "జ్యా": 920,
 "జ్యాం": 921,
 "జ్రా": 922,
 "జ్‌మ": 923,
 "ట": 924,
 "టం": 925,
 "టా": 926,
 "టి": 927,
 "టీ": 928,
 "టు": 929,
 "టుం": 930,
 "టూ": 931,
 "టె": 932,
 "టే": 933,
 "టై": 934,
 "టో": 935,
 "టోం": 936,
 "ట్": 937,
 "ట్కా": 938,
 "ట్ట": 939,
 "ట్టా": 940,
 "ట్టి": 941,
 "ట్టు": 942,
 "ట్టూ": 943,
 "ట్టె": 944,
 "ట్యం": 945,
 "ట్రా": 946,
 "ట్రో": 947,
 "ట్ల": 948,
 "ట్లు": 949,
 "ట్‌బా": 950,
 "ట్‌సొ": 951,
 "ఠ": 952,
 "ఠి": 953,
 "డ": 954,
 "డం": 955,
 "డా": 956,
 "డి": 957,
 "డిం": 958,
 "డు": 959,
 "డుం": 960,
 "డే": 961,
 "డై": 962,
 "డో": 963,
 "డ్": 964,
 "డ్చు": 965,
 "డ్డ": 966,
 "డ్డా": 967,
 "డ్డీ": 968,
 "డ్డు": 969,
 "డ్మిం": 970,
 "డ్య": 971,
 "డ్యు": 972,
 "డ్రా": 973,
 "డ్ల": 974,
 "డ్లు": 975,
 "డ్‌గే": 976,
 "ఢ": 977,
 "ఢా": 978,
 "ఢి": 979,
 "ణ": 980,
 "ణం": 981,
 "ణా": 982,
 "ణి": 983,
 "ణిం": 984,
 "ణు": 985,
 "ణ్వ": 986,
 "త": 987,
 "తం": 988,
 "తా": 989,
 "తి": 990,
 "తీ": 991,
 "తు": 992,
 "తుం": 993,
 "తూ": 994,
 "తృ": 995,
 "తె": 996,
 "తే": 997,
 "తో": 998,
 "తోం": 999,
 "త్": 1000,
 "త్కృ": 1001,
 "త్త": 1002,
 "త్తం": 1003,
 "త్తా": 1004,
 "త్మా": 1005,
 "త్మి": 1006,
 "త్య": 1007,
 "త్యం": 1008,
 "త్యే": 1009,
 "త్ర": 1010,
 "త్రం": 1011,
 "త్రా": 1012,
 "త్రి": 1013,
 "త్రు": 1014,
 "త్ర్య": 1015,
 "త్ర్యం": 1016,
 "త్ర్యా": 1017,
 "త్వ": 1018,
 "త్వం": 1019,
 "త్వా": 1020,
 "త్స": 1021,
 "త్సా": 1022,
 "త్‌": 1023,
 "త్‌లో": 1024,
 "థ": 1025,
 "థా": 1026,
 "థి": 1027,
 "థ్": 1028,
 "ద": 1029,
 "దం": 1030,
 "దా": 1031,
 "ది": 1032,
 "దిం": 1033,
 "దీ": 1034,
 "దు": 1035,
 "దూ": 1036,
 "దృ": 1037,
 "దే": 1038,
 "దై": 1039,
 "ద్": 1040,
 "ద్ద": 1041,
 "ద్దం": 1042,
 "ద్ది": 1043,
 "ద్దు": 1044,
 "ద్ధ": 1045,
 "ద్ధం": 1046,
 "ద్ధా": 1047,
 "ద్ధి": 1048,
 "ద్ధిం": 1049,
 "ద్ధు": 1050,
 "ద్భ": 1051,
 "ద్య": 1052,
 "ద్ర": 1053,
 "ద్రం": 1054,
 "ద్రా": 1055,
 "ద్రీ": 1056,
 "ద్వా": 1057,
 "ద్వి": 1058,
 "ద్వీ": 1059,
 "ద్వై": 1060,
 "ధ": 1061,
 "ధం": 1062,
 "ధా": 1063,
 "ధి": 1064,
 "ధిం": 1065,
 "ధీ": 1066,
 "ధు": 1067,
 "ధుా": 1068,
 "ధూ": 1069,
 "ధ్య": 1070,
 "ధ్యం": 1071,
 "ధ్యా": 1072,
 "న": 1073,
 "నం": 1074,
 "నా": 1075,
 "ని": 1076,
 "నిం": 1077,
 "నీ": 1078,
 "ను": 1079,
 "నుం": 1080,
 "నూ": 1081,
 "నృ": 1082,
 "నె": 1083,
 "నే": 1084,
 "నై": 1085,
 "నో": 1086,
 "న్": 1087,
 "న్కు": 1088,
 "న్తో": 1089,
 "న్న": 1090,
 "న్నం": 1091,
 "న్నా": 1092,
 "న్ని": 1093,
 "న్నీ": 1094,
 "న్ను": 1095,
 "న్నె": 1096,
 "న్నై": 1097,
 "న్నో": 1098,
 "న్మ": 1099,
 "న్మా": 1100,
 "న్య": 1101,
 "న్యా": 1102,
 "న్లు": 1103,
 "న్సీ": 1104,
 "న్స్": 1105,
 "న్‌": 1106,
 "న్‌కు": 1107,
 "న్‌ఫ": 1108,
 "ప": 1109,
 "పం": 1110,
 "పా": 1111,
 "పాం": 1112,
 "పి": 1113,
 "పిం": 1114,
 "పీ": 1115,
 "పు": 1116,
 "పూ": 1117,
 "పె": 1118,
 "పే": 1119,
 "పై": 1120,
 "పొ": 1121,
 "పొం": 1122,
 "పో": 1123,
 "పౌ": 1124,
 "ప్తు": 1125,
 "ప్ప": 1126,
 "ప్పి": 1127,
 "ప్పిం": 1128,
 "ప్పు": 1129,
 "ప్ర": 1130,
 "ప్రా": 1131,
 "ప్రాం": 1132,
 "ప్రి": 1133,
 "ప్రీం": 1134,
 "ఫ": 1135,
 "ఫి": 1136,
 "ఫు": 1137,
 "ఫ్ఘ": 1138,
 "ఫ్ఘా": 1139,
 "ఫ్ట్‌వే": 1140,
 "ఫ్రా": 1141,
 "బ": 1142,
 "బం": 1143,
 "బా": 1144,
 "బాం": 1145,
 "బి": 1146,
 "బు": 1147,
 "బూ": 1148,
 "బె": 1149,
 "బెం": 1150,
 "బే": 1151,
 "బై": 1152,
 "బౌ": 1153,
 "బ్దం": 1154,
 "బ్ది": 1155,
 "బ్యా": 1156,
 "బ్ర": 1157,
 "బ్రా": 1158,
 "బ్రి": 1159,
 "బ్రె": 1160,
 "బ్సై": 1161,
 "భ": 1162,
 "భం": 1163,
 "భా": 1164,
 "భి": 1165,
 "భిం": 1166,
 "భు": 1167,
 "భూ": 1168,
 "భౌ": 1169,
 "భ్య": 1170,
 "భ్యు": 1171,
 "మ": 1172,
 "మం": 1173,
 "మా": 1174,
 "మాం": 1175,
 "మి": 1176,
 "మిం": 1177,
 "మీ": 1178,
 "ము": 1179,
 "ముం": 1180,
 "మూ": 1181,
 "మె": 1182,
 "మెం": 1183,
 "మే": 1184,
 "మై": 1185,
 "మైం": 1186,
 "మొ": 1187,
 "మో": 1188,
 "మౌ": 1189,
 "మ్": 1190,
 "మ్మూ": 1191,
 "మ్య": 1192,
 "మ్యా": 1193,
 "మ్రా": 1194,
 "మ్‌": 1195,
 "య": 1196,
 "యం": 1197,
 "యా": 1198,
 "యాం": 1199,
 "యి": 1200,
 "యిం": 1201,
 "యీ": 1202,
 "యు": 1203,
 "యూ": 1204,
 "యో": 1205,
 "ర": 1206,
 "రం": 1207,
 "రా": 1208,
 "రి": 1209,
 "రిం": 1210,
 "రీ": 1211,
 "రు": 1212,
 "రూ": 1213,
 "రె": 1214,
 "రెం": 1215,
 "రే": 1216,
 "రై": 1217,
 "రొ": 1218,
 "రో": 1219,
 "రోః": 1220,
 "ర్": 1221,
 "ర్కె": 1222,
 "ర్కొ": 1223,
 "ర్కొం": 1224,
 "ర్క్": 1225,
 "ర్క్‌టి": 1226,
 "ర్గ": 1227,
 "ర్గం": 1228,
 "ర్గా": 1229,
 "ర్గీ": 1230,
 "ర్ఘ": 1231,
 "ర్చి": 1232,
 "ర్చు": 1233,
 "ర్జా": 1234,
 "ర్జె": 1235,
 "ర్టి": 1236,
 "ర్టీ": 1237,
 "ర్టు": 1238,
 "ర్ణ": 1239,
 "ర్ణం": 1240,
 "ర్ణా": 1241,
 "ర్ణిం": 1242,
 "ర్త": 1243,
 "ర్తా": 1244,
 "ర్తి": 1245,
 "ర్తిం": 1246,
 "ర్తె": 1247,
 "ర్థ": 1248,
 "ర్థా": 1249,
 "ర్థి": 1250,
 "ర్థ్యం": 1251,
 "ర్ధి": 1252,
 "ర్ప": 1253,
 "ర్పా": 1254,
 "ర్పు": 1255,
 "ర్భ": 1256,
 "ర్మి": 1257,
 "ర్మిం": 1258,
 "ర్మే": 1259,
 "ర్య": 1260,
 "ర్యం": 1261,
 "ర్యా": 1262,
 "ర్ల": 1263,
 "ర్లు": 1264,
 "ర్వ": 1265,
 "ర్వం": 1266,
 "ర్వా": 1267,
 "ర్వీ": 1268,
 "ర్వో": 1269,
 "ర్శ": 1270,
 "ర్శిం": 1271,
 "ర్ష": 1272,
 "ర్షం": 1273,
 "ర్షా": 1274,
 "ర్షి": 1275,
 "ర్సిం": 1276,
 "ర్సీ": 1277,
 "ర్‌": 1278,
 "ర్‌ల": 1279,
 "ర‌": 1280,
 "ల": 1281,
 "లం": 1282,
 "లా": 1283,
 "లాం": 1284,
 "లి": 1285,
 "లిం": 1286,
 "లీ": 1287,
 "లు": 1288,
 "లె": 1289,
 "లెం": 1290,
 "లే": 1291,
 "లై": 1292,
 "లో": 1293,
 "లౌ": 1294,
 "ల్": 1295,
 "ల్గి": 1296,
 "ల్తా": 1297,
 "ల్దీ": 1298,
 "ల్ప": 1299,
 "ల్పం": 1300,
 "ల్పిం": 1301,
 "ల్పు": 1302,
 "ల్పే": 1303,
 "ల్పో": 1304,
 "ల్యం": 1305,
 "ల్ల": 1306,
 "ల్లా": 1307,
 "ల్లి": 1308,
 "ల్లిం": 1309,
 "ల్లీ": 1310,
 "ల్లు": 1311,
 "ల్లె": 1312,
 "ల్లో": 1313,
 "ల్వా": 1314,
 "ల్వే": 1315,
 "ల్స్": 1316,
 "ల్‌": 1317,
 "ల్‌కా": 1318,
 "ళ": 1319,
 "ళం": 1320,
 "ళా": 1321,
 "ళి": 1322,
 "ళు": 1323,
 "ళ్ల": 1324,
 "ళ్ళ": 1325,
 "ళ్ళు": 1326,
 "వ": 1327,
 "వం": 1328,
 "వా": 1329,
 "వి": 1330,
 "విం": 1331,
 "వీ": 1332,
 "వీం": 1333,
 "వు": 1334,
 "వుం": 1335,
 "వూ": 1336,
 "వృ": 1337,
 "వె": 1338,
 "వే": 1339,
 "వై": 1340,
 "వ్య": 1341,
 "వ్యా": 1342,
 "వ్య‌": 1343,
 "వ్వ": 1344,
 "వ‌": 1345,
 "శ": 1346,
 "శం": 1347,
 "శా": 1348,
 "శి": 1349,
 "శీ": 1350,
 "శె": 1351,
 "శే": 1352,
 "శై": 1353,
 "శో": 1354,
 "శ్": 1355,
 "శ్చి": 1356,
 "శ్మీ": 1357,
 "శ్ర": 1358,
 "శ్రా": 1359,
 "శ్రీ": 1360,
 "శ్లో": 1361,
 "శ్వ": 1362,
 "శ్వా": 1363,
 "శ్‌": 1364,
 "శ్‌ల": 1365,
 "ష": 1366,
 "షం": 1367,
 "షా": 1368,
 "షు": 1369,
 "షే": 1370,
 "ష్": 1371,
 "ష్కు": 1372,
 "ష్ట": 1373,
 "ష్టం": 1374,
 "ష్టి": 1375,
 "ష్టు": 1376,
 "ష్ట్యా": 1377,
 "ష్ట్ర": 1378,
 "ష్ట్రా": 1379,
 "ష్ణ": 1380,
 "ష్ణా": 1381,
 "స": 1382,
 "సం": 1383,
 "సా": 1384,
 "సాం": 1385,
 "సి": 1386,
 "సిం": 1387,
 "సు": 1388,
 "సూ": 1389,
 "సె": 1390,
 "సే": 1391,
 "సై": 1392,
 "సౌ": 1393,
 "స్": 1394,
 "స్క": 1395,
 "స్కృ": 1396,
 "స్ట్": 1397,
 "స్త": 1398,
 "స్తా": 1399,
 "స్తాం": 1400,
 "స్తీ": 1401,
 "స్తు": 1402,
 "స్తుం": 1403,
 "స్తూ": 1404,
 "స్తృ": 1405,
 "స్త్ర": 1406,
 "స్త్రం": 1407,
 "స్త్రీ": 1408,
 "స్థ": 1409,
 "స్థా": 1410,
 "స్థి": 1411,
 "స్థూ": 1412,
 "స్థ‌": 1413,
 "స్య": 1414,
 "స్యం": 1415,
 "స్రా": 1416,
 "స్రి": 1417,
 "స్లా": 1418,
 "స్లిం": 1419,
 "స్లే": 1420,
 "స్లో": 1421,
 "స్వ": 1422,
 "స్వా": 1423,
 "స్వీ": 1424,
 "స్వే": 1425,
 "స్సీ": 1426,
 "హ": 1427,
 "హం": 1428,
 "హా": 1429,
 "హి": 1430,
 "హిం": 1431,
 "హు": 1432,
 "హె": 1433,
 "హే": 1434,
 "హై": 1435,
 "హొ": 1436,
 "హో": 1437,
 "హ్నా": 1438,
 "హ్మ": 1439,
 "హ్రా": 1440,
 "హ్వా": 1441,
 "ṅ": 1442,
 "ṇ": 1443,
 "ṣ": 1444,
 "ṭ": 1445,
 "ἰ": 1446,
 "in": 1447,
 "th": 1448,
 "an": 1449,
 "the": 1450,
 "di": 1451,
 "er": 1452,
 "on": 1453,
 "indi": 1454,
 "al": 1455,
 "ar": 1456,
 "en": 1457,
 "st": 1458,
 "india": 1459,
 "and": 1460,
 "or": 1461,
 "of": 1462,
 "at": 1463,
 "as": 1464,
 "re": 1465,
 "ed": 1466,
 "it": 1467,
 "ion": 1468,
 "ic": 1469,
 "to": 1470,
 "es": 1471,
 "is": 1472,
 "ent": 1473,
 "om": 1474,
 "ing": 1475,
 "ou": 1476,
 "ec": 1477,
 "ur": 1478,
 "am": 1479,
 "ly": 1480,
 "le": 1481,
 "il": 1482,
 "ver": 1483,
 "for": 1484,
 "ul": 1485,
 "by": 1486,
 "ce": 1487,
 "em": 1488,
 "im": 1489,
 "indian": 1490,
 "ol": 1491,
 "ch": 1492,
 "est": 1493,
 "con": 1494,
 "be": 1495,
 "ad": 1496,
 "ow": 1497,
 "wi": 1498,
 "se": 1499,
 "ig": 1500,
 "ast": 1501,
 "ist": 1502,
 "ation": 1503,
 "wh": 1504,
 "us": 1505,
 "op": 1506,
 "ind": 1507,
 "with": 1508,
 "was": 1509,
 "tr": 1510,
 "tion": 1511,
 "un": 1512,
 "ir": 1513,
 "ter": 1514,
 "ag": 1515,
 "ang": 1516,
 "ma": 1517,
 "el": 1518,
 "fr": 1519,
 "res": 1520,
 "art": 1521,
 "pr": 1522,
 "mo": 1523,
 "no": 1524,
 "ial": 1525,
 "ate": 1526,
 "uc": 1527,
 "oc": 1528,
 "ies": 1529,
 "cent": 1530,
 "su": 1531,
 "over": 1532,
 "ich": 1533,
 "has": 1534,
 "ex": 1535,
 "ac": 1536,
 "ab": 1537,
 "from": 1538,
 "cl": 1539,
 "which": 1540,
 "gh": 1541,
 "are": 1542,
 "iv": 1543,
 "ere": 1544,
 "its": 1545,
 "ical": 1546,
 "der": 1547,
 "ill": 1548,
 "ear": 1549,
 "com": 1550,
 "ult": 1551,
 "ts": 1552,
 "ong": 1553,
 "ment": 1554,
 "de": 1555,
 "bu": 1556,
 "av": 1557,
 "wor": 1558,
 "ther": 1559,
 "sou": 1560,
 "pl": 1561,
 "rit": 1562,
 "were": 1563,
 "um": 1564,
 "ri": 1565,
 "arg": 1566,
 "ain": 1567,
 "li": 1568,
 "eral": 1569,
 "econ": 1570,
 "ay": 1571,
 "larg": 1572,
 "asi": 1573,
 "af": 1574,
 "ld": 1575,
 "ary": 1576,
 "ted": 1577,
 "per": 1578,
 "part": 1579,
 "ure": 1580,
 "id": 1581,
 "gr": 1582,
 "et": 1583,
 "co": 1584,
 "ass": 1585,
 "ap": 1586,
 "west": 1587,
 "od": 1588,
 "form": 1589,
 "tw": 1590,
 "sh": 1591,
 "nor": 1592,
 "low": 1593,
 "gen": 1594,
 "ame": 1595,
 "ity": 1596,
 "indu": 1597,
 "econom": 1598,
 "asia": 1599,
 "after": 1600,
 "world": 1601,
 "south": 1602,
 "any": 1603,
 "sp": 1604,
 "pop": 1605,
 "overn": 1606,
 "ough": 1607,
 "ish": 1608,
 "govern": 1609,
 "end": 1610,
 "bec": 1611,
 "oun": 1612,
 "mill": 1613,
 "into": 1614,
 "government": 1615,
 "centur": 1616,
 "cre": 1617,
 "als": 1618,
 "ular": 1619,
 "rel": 1620,
 "lear": 1621,
 "ism": 1622,
 "ern": 1623,
 "uring": 1624,
 "uag": 1625,
 "reg": 1626,
 "lang": 1627,
 "languag": 1628,
 "during": 1629,
 "ans": 1630,
 "ak": 1631,
 "uclear": 1632,
 "up": 1633,
 "region": 1634,
 "nuclear": 1635,
 "ne": 1636,
 "ime": 1637,
 "hi": 1638,
 "all": 1639,
 "year": 1640,
 "por": 1641,
 "os": 1642,
 "hav": 1643,
 "cont": 1644,
 "ated": 1645,
 "ance": 1646,
 "ural": 1647,
 "ous": 1648,
 "min": 1649,
 "minist": 1650,
 "me": 1651,
 "incl": 1652,
 "inclu": 1653,
 "hindu": 1654,
 "emp": 1655,
 "east": 1656,
 "ber": 1657,
 "stit": 1658,
 "stitu": 1659,
 "ive": 1660,
 "irst": 1661,
 "igh": 1662,
 "first": 1663,
 "fe": 1664,
 "ates": 1665,
 "ress": 1666,
 "ru": 1667,
 "ra": 1668,
 "ding": 1669,
 "comp": 1670,
 "ally": 1671,
 "tra": 1672,
 "moder": 1673,
 "modern": 1674,
 "mar": 1675,
 "ire": 1676,
 "eng": 1677,
 "dh": 1678,
 "but": 1679,
 "became": 1680,
 "bo": 1681,
 "ant": 1682,
 "yst": 1683,
 "ystem": 1684,
 "western": 1685,
 "used": 1686,
 "them": 1687,
 "this": 1688,
 "stitution": 1689,
 "system": 1690,
 "relig": 1691,
 "ral": 1692,
 "pu": 1693,
 "our": 1694,
 "maj": 1695,
 "major": 1696,
 "largest": 1697,
 "long": 1698,
 "have": 1699,
 "had": 1700,
 "general": 1701,
 "gre": 1702,
 "gan": 1703,
 "empire": 1704,
 "elec": 1705,
 "dition": 1706,
 "class": 1707,
 "century": 1708,
 "central": 1709,
 "cult": 1710,
 "been": 1711,
 "ased": 1712,
 "anges": 1713,
 "also": 1714,
 "thern": 1715,
 "their": 1716,
 "such": 1717,
 "sub": 1718,
 "soc": 1719,
 "most": 1720,
 "minister": 1721,
 "million": 1722,
 "mu": 1723,
 "mor": 1724,
 "lat": 1725,
 "indo": 1726,
 "incre": 1727,
 "imal": 1728,
 "gress": 1729,
 "congress": 1730,
 "amil": 1731,
 "years": 1732,
 "who": 1733,
 "war": 1734,
 "tradition": 1735,
 "there": 1736,
 "that": 1737,
 "popul": 1738,
 "pol": 1739,
 "ome": 1740,
 "num": 1741,
 "nation": 1742,
 "more": 1743,
 "mus": 1744,
 "many": 1745,
 "har": 1746,
 "ence": 1747,
 "dec": 1748,
 "contin": 1749,
 "both": 1750,
 "ban": 1751,
 "anc": 1752,
 "among": 1753,
 "ved": 1754,
 "two": 1755,
 "sin": 1756,
 "prime": 1757,
 "ok": 1758,
 "north": 1759,
 "kh": 1760,
 "ign": 1761,
 "ens": 1762,
 "diver": 1763,
 "dance": 1764,
 "contr": 1765,
 "constitution": 1766,
 "cast": 1767,
 "urban": 1768,
 "twe": 1769,
 "tween": 1770,
 "though": 1771,
 "tor": 1772,
 "pe": 1773,
 "not": 1774,
 "large": 1775,
 "lic": 1776,
 "jp": 1777,
 "istan": 1778,
 "grow": 1779,
 "fic": 1780,
 "ext": 1781,
 "election": 1782,
 "dr": 1783,
 "ddh": 1784,
 "comm": 1785,
 "buddh": 1786,
 "between": 1787,
 "bce": 1788,
 "ament": 1789,
 "ade": 1790,
 "ut": 1791,
 "si": 1792,
 "ser": 1793,
 "sec": 1794,
 "sc": 1795,
 "ritish": 1796,
 "population": 1797,
 "number": 1798,
 "national": 1799,
 "non": 1800,
 "life": 1801,
 "language": 1802,
 "fol": 1803,
 "fl": 1804,
 "economy": 1805,
 "economic": 1806,
 "dom": 1807,
 "del": 1808,
 "caste": 1809,
 "british": 1810,
 "atic": 1811,
 "vi": 1812,
 "under": 1813,
 "tamil": 1814,
 "social": 1815,
 "river": 1816,
 "rough": 1817,
 "pub": 1818,
 "public": 1819,
 "par": 1820,
 "pak": 1821,
 "pakistan": 1822,
 "imalay": 1823,
 "himalay": 1824,
 "continent": 1825,
 "classical": 1826,
 "coun": 1827,
 "ca": 1828,
 "began": 1829,
 "bjp": 1830,
 "unj": 1831,
 "unjab": 1832,
 "str": 1833,
 "since": 1834,
 "ric": 1835,
 "plate": 1836,
 "punjab": 1837,
 "northern": 1838,
 "mugh": 1839,
 "mughal": 1840,
 "mid": 1841,
 "later": 1842,
 "ins": 1843,
 "ina": 1844,
 "ially": 1845,
 "hindi": 1846,
 "ha": 1847,
 "ganges": 1848,
 "fore": 1849,
 "fed": 1850,
 "erg": 1851,
 "ever": 1852,
 "delhi": 1853,
 "china": 1854,
 "ures": 1855,
 "tec": 1856,
 "subcontinent": 1857,
 "states": 1858,
 "spec": 1859,
 "set": 1860,
 "religion": 1861,
 "rate": 1862,
 "pro": 1863,
 "pre": 1864,
 "ound": 1865,
 "out": 1866,
 "other": 1867,
 "new": 1868,
 "main": 1869,
 "languages": 1870,
 "led": 1871,
 "land": 1872,
 "itary": 1873,
 "istor": 1874,
 "indus": 1875,
 "increased": 1876,
 "including": 1877,
 "infl": 1878,
 "influ": 1879,
 "histor": 1880,
 "gand": 1881,
 "gandhi": 1882,
 "follow": 1883,
 "eur": 1884,
 "countr": 1885,
 "control": 1886,
 "cor": 1887,
 "vel": 1888,
 "val": 1889,
 "through": 1890,
 "than": 1891,
 "ting": 1892,
 "ten": 1893,
 "ta": 1894,
 "sty": 1895,
 "state": 1896,
 "species": 1897,
 "some": 1898,
 "sity": 1899,
 "rule": 1900,
 "rural": 1901,
 "port": 1902,
 "polit": 1903,
 "peri": 1904,
 "period": 1905,
 "peop": 1906,
 "people": 1907,
 "party": 1908,
 "parli": 1909,
 "parliament": 1910,
 "pt": 1911,
 "pow": 1912,
 "power": 1913,
 "po": 1914,
 "pen": 1915,
 "lit": 1916,
 "liter": 1917,
 "lish": 1918,
 "lim": 1919,
 "ited": 1920,
 "isation": 1921,
 "ient": 1922,
 "himalayas": 1923,
 "hum": 1924,
 "forest": 1925,
 "federal": 1926,
 "ess": 1927,
 "enc": 1928,
 "ep": 1929,
 "diversity": 1930,
 "ats": 1931,
 "ancient": 1932,
 "age": 1933,
 "acy": 1934,
 "aw": 1935,
 "union": 1936,
 "ultan": 1937,
 "ually": 1938,
 "sector": 1939,
 "sans": 1940,
 "sansk": 1941,
 "sanskrit": 1942,
 "sab": 1943,
 "sabha": 1944,
 "republic": 1945,
 "popular": 1946,
 "penins": 1947,
 "peninsular": 1948,
 "pres": 1949,
 "own": 1950,
 "ope": 1951,
 "offic": 1952,
 "ocal": 1953,
 "ni": 1954,
 "nium": 1955,
 "millen": 1956,
 "millennium": 1957,
 "mathem": 1958,
 "mil": 1959,
 "military": 1960,
 "local": 1961,
 "jan": 1962,
 "ivil": 1963,
 "ition": 1964,
 "ious": 1965,
 "high": 1966,
 "following": 1967,
 "europe": 1968,
 "early": 1969,
 "dem": 1970,
 "culture": 1971,
 "country": 1972,
 "company": 1973,
 "common": 1974,
 "caused": 1975,
 "civil": 1976,
 "act": 1977,
 "19": 1978,
 "we": 1979,
 "velop": 1980,
 "united": 1981,
 "uced": 1982,
 "they": 1983,
 "these": 1984,
 "theast": 1985,
 "territ": 1986,
 "territor": 1987,
 "tech": 1988,
 "sup": 1989,
 "sikh": 1990,
 "served": 1991,
 "sing": 1992,
 "regional": 1993,
 "qu": 1994,
 "plain": 1995,
 "owever": 1996,
 "one": 1997,
 "olo": 1998,
 "olog": 1999,
 "old": 2000,
 "ob": 2001,
 "muslim": 2002,
 "music": 2003,
 "mark": 2004,
 "majority": 2005,
 "lead": 2006,
 "lam": 2007,
 "islam": 2008,
 "inal": 2009,
 "illion": 2010,
 "io": 2011,
 "however": 2012,
 "fer": 2013,
 "esp": 2014,
 "ers": 2015,
 "emerg": 2016,
 "ement": 2017,
 "develop": 2018,
 "ded": 2019,
 "cook": 2020,
 "coast": 2021,
 "centuries": 2022,
 "cour": 2023,
 "billion": 2024,
 "asing": 2025,
 "work": 2026,
 "wide": 2027,
 "wom": 2028,
 "women": 2029,
 "wel": 2030,
 "vent": 2031,
 "vement": 2032,
 "ultanate": 2033,
 "tot": 2034,
 "total": 2035,
 "thre": 2036,
 "thir": 2037,
 "third": 2038,
 "ty": 2039,
 "time": 2040,
 "sultanate": 2041,
 "sign": 2042,
 "sch": 2043,
 "ricult": 2044,
 "religious": 2045,
 "red": 2046,
 "righ": 2047,
 "political": 2048,
 "oss": 2049,
 "ose": 2050,
 "neh": 2051,
 "nehru": 2052,
 "movement": 2053,
 "midd": 2054,
 "middle": 2055,
 "medi": 2056,
 "made": 2057,
 "les": 2058,
 "last": 2059,
 "ise": 2060,
 "influenc": 2061,
 "industr": 2062,
 "indians": 2063,
 "include": 2064,
 "ine": 2065,
 "imes": 2066,
 "ident": 2067,
 "ically": 2068,
 "ian": 2069,
 "human": 2070,
 "hinduism": 2071,
 "growth": 2072,
 "ghats": 2073,
 "forms": 2074,
 "expor": 2075,
 "ensus": 2076,
 "engal": 2077,
 "emerged": 2078,
 "eastern": 2079,
 "day": 2080,
 "cording": 2081,
 "coal": 2082,
 "cit": 2083,
 "census": 2084,
 "cap": 2085,
 "capit": 2086,
 "bio": 2087,
 "bh": 2088,
 "bengal": 2089,
 "based": 2090,
 "ata": 2091,
 "areas": 2092,
 "agricult": 2093,
 "according": 2094,
 "able": 2095,
 "air": 2096,
 "ach": 2097,
 "ucation": 2098,
 "term": 2099,
 "techn": 2100,
 "technolog": 2101,
 "secon": 2102,
 "second": 2103,
 "religions": 2104,
 "regions": 2105,
 "remain": 2106,
 "read": 2107,
 "rates": 2108,
 "prod": 2109,
 "parliamentary": 2110,
 "pain": 2111,
 "painting": 2112,
 "orig": 2113,
 "ocr": 2114,
 "mathematic": 2115,
 "lower": 2116,
 "literacy": 2117,
 "ley": 2118,
 "leg": 2119,
 "kn": 2120,
 "ka": 2121,
 "jain": 2122,
 "ites": 2123,
 "increasing": 2124,
 "imate": 2125,
 "ild": 2126,
 "ics": 2127,
 "ied": 2128,
 "grew": 2129,
 "great": 2130,
 "formed": 2131,
 "fig": 2132,
 "far": 2133,
 "exp": 2134,
 "european": 2135,
 "ety": 2136,
 "espec": 2137,
 "especially": 2138,
 "english": 2139,
 "elections": 2140,
 "education": 2141,
 "domin": 2142,
 "dif": 2143,
 "dic": 2144,
 "democr": 2145,
 "des": 2146,
 "cultural": 2147,
 "cr": 2148,
 "col": 2149,
 "ash": 2150,
 "ago": 2151,
 "ades": 2152,
 "ace": 2153,
 "0s": 2154,
 "ya": 2155,
 "widely": 2156,
 "whose": 2157,
 "well": 2158,
 "won": 2159,
 "viol": 2160,
 "valley": 2161,
 "vol": 2162,
 "var": 2163,
 "urther": 2164,
 "unt": 2165,
 "until": 2166,
 "use": 2167,
 "traditional": 2168,
 "trop": 2169,
 "tropical": 2170,
 "three": 2171,
 "thar": 2172,
 "styles": 2173,
 "southern": 2174,
 "southeast": 2175,
 "sever": 2176,
 "sri": 2177,
 "so": 2178,
 "raj": 2179,
 "rul": 2180,
 "ro": 2181,
 "ration": 2182,
 "rat": 2183,
 "pture": 2184,
 "ould": 2185,
 "ond": 2186,
 "omet": 2187,
 "official": 2188,
 "often": 2189,
 "occ": 2190,
 "ood": 2191,
 "ogr": 2192,
 "ograp": 2193,
 "ograph": 2194,
 "nic": 2195,
 "nd": 2196,
 "men": 2197,
 "longer": 2198,
 "lef": 2199,
 "left": 2200,
 "lan": 2201,
 "janata": 2202,
 "jo": 2203,
 "istic": 2204,
 "ide": 2205,
 "history": 2206,
 "here": 2207,
 "hel": 2208,
 "he": 2209,
 "growing": 2210,
 "gup": 2211,
 "gd": 2212,
 "gdp": 2213,
 "gar": 2214,
 "foreign": 2215,
 "feat": 2216,
 "further": 2217,
 "four": 2218,
 "five": 2219,
 "ert": 2220,
 "ered": 2221,
 "empl": 2222,
 "diverse": 2223,
 "created": 2224,
 "contain": 2225,
 "cities": 2226,
 "ct": 2227,
 "buddhism": 2228,
 "become": 2229,
 "ations": 2230,
 "arch": 2231,
 "ange": 2232,
 "ana": 2233,
 "although": 2234,
 "ages": 2235,
 "worn": 2236,
 "when": 2237,
 "wild": 2238,
 "ving": 2239,
 "vill": 2240,
 "vast": 2241,
 "utive": 2242,
 "urya": 2243,
 "upa": 2244,
 "und": 2245,
 "undament": 2246,
 "undamental": 2247,
 "ulpture": 2248,
 "ucial": 2249,
 "ual": 2250,
 "traditions": 2251,
 "trans": 2252,
 "thought": 2253,
 "tern": 2254,
 "ternal": 2255,
 "technology": 2256,
 "times": 2257,
 "subse": 2258,
 "subsequ": 2259,
 "subsequent": 2260,
 "sum": 2261,
 "style": 2262,
 "ste": 2263,
 "spread": 2264,
 "singh": 2265,
 "signi": 2266,
 "signific": 2267,
 "significant": 2268,
 "sett": 2269,
 "secular": 2270,
 "scho": 2271,
 "school": 2272,
 "sculpture": 2273,
 "scri": 2274,
 "sar": 2275,
 "sari": 2276,
 "rise": 2277,
 "ren": 2278,
 "president": 2279,
 "prom": 2280,
 "proc": 2281,
 "portant": 2282,
 "polic": 2283,
 "platea": 2284,
 "plateau": 2285,
 "oup": 2286,
 "organ": 2287,
 "oper": 2288,
 "onial": 2289,
 "ones": 2290,
 "onesi": 2291,
 "onesia": 2292,
 "ominal": 2293,
 "off": 2294,
 "ody": 2295,
 "obar": 2296,
 "nicobar": 2297,
 "now": 2298,
 "nominal": 2299,
 "moh": 2300,
 "mohen": 2301,
 "mohenjo": 2302,
 "medie": 2303,
 "medieval": 2304,
 "mathematics": 2305,
 "market": 2306,
 "marri": 2307,
 "maurya": 2308,
 "mak": 2309,
 "mer": 2310,
 "liest": 2311,
 "leading": 2312,
 "lands": 2313,
 "known": 2314,
 "king": 2315,
 "kingdom": 2316,
 "kingdoms": 2317,
 "keral": 2318,
 "kerala": 2319,
 "jainism": 2320,
 "ju": 2321,
 "ived": 2322,
 "ists": 2323,
 "ions": 2324,
 "influenced": 2325,
 "industry": 2326,
 "indonesia": 2327,
 "indep": 2328,
 "independ": 2329,
 "inter": 2330,
 "important": 2331,
 "ibu": 2332,
 "held": 2333,
 "harat": 2334,
 "hu": 2335,
 "group": 2336,
 "figures": 2337,
 "fundamental": 2338,
 "famil": 2339,
 "families": 2340,
 "fac": 2341,
 "external": 2342,
 "exec": 2343,
 "executive": 2344,
 "etic": 2345,
 "era": 2346,
 "ength": 2347,
 "endem": 2348,
 "endang": 2349,
 "endangered": 2350,
 "earliest": 2351,
 "ew": 2352,
 "eth": 2353,
 "developed": 2354,
 "duc": 2355,
 "du": 2356,
 "dar": 2357,
 "daro": 2358,
 "danc": 2359,
 "dances": 2360,
 "crucial": 2361,
 "courts": 2362,
 "cooked": 2363,
 "contribu": 2364,
 "cons": 2365,
 "conduc": 2366,
 "compos": 2367,
 "commer": 2368,
 "colonial": 2369,
 "coalition": 2370,
 "changes": 2371,
 "capital": 2372,
 "buddhist": 2373,
 "buddha": 2374,
 "before": 2375,
 "bor": 2376,
 "body": 2377,
 "bharat": 2378,
 "around": 2379,
 "arm": 2380,
 "andam": 2381,
 "andaman": 2382,
 "ants": 2383,
 "ann": 2384,
 "animal": 2385,
 "along": 2386,
 "administ": 2387,
 "ack": 2388,
 "about": 2389,
 "0th": 2390,
 "yan": 2391,
 "yanmar": 2392,
 "ximate": 2393,
 "ximately": 2394,
 "works": 2395,
 "within": 2396,
 "wildlife": 2397,
 "weap": 2398,
 "weapon": 2399,
 "wars": 2400,
 "writ": 2401,
 "way": 2402,
 "wana": 2403,
 "wa": 2404,
 "violence": 2405,
 "vo": 2406,
 "vid": 2407,
 "vic": 2408,
 "ven": 2409,
 "ve": 2410,
 "utical": 2411,
 "urn": 2412,
 "urned": 2413,
 "upper": 2414,
 "ulting": 2415,
 "ued": 2416,
 "uary": 2417,
 "traditionally": 2418,
 "tri": 2419,
 "trib": 2420,
 "trade": 2421,
 "took": 2422,
 "tions": 2423,
 "territories": 2424,
 "turned": 2425,
 "ture": 2426,
 "support": 2427,
 "stat": 2428,
 "stan": 2429,
 "spe": 2430,
 "speak": 2431,
 "soci": 2432,
 "society": 2433,
 "single": 2434,
 "sine": 2435,
 "sian": 2436,
 "shor": 2437,
 "several": 2438,
 "sea": 2439,
 "sm": 2440,
 "sim": 2441,
 "rights": 2442,
 "right": 2443,
 "resulting": 2444,
 "renew": 2445,
 "relations": 2446,
 "reduced": 2447,
 "rect": 2448,
 "rectly": 2449,
 "recor": 2450,
 "recorded": 2451,
 "rah": 2452,
 "ross": 2453,
 "roc": 2454,
 "rock": 2455,
 "rich": 2456,
 "proximately": 2457,
 "prim": 2458,
 "primary": 2459,
 "poin": 2460,
 "place": 2461,
 "persian": 2462,
 "partition": 2463,
 "ple": 2464,
 "phar": 2465,
 "pharma": 2466,
 "pharmace": 2467,
 "pharmaceutical": 2468,
 "ouse": 2469,
 "original": 2470,
 "oral": 2471,
 "operation": 2472,
 "ondwana": 2473,
 "oldest": 2474,
 "oci": 2475,
 "obal": 2476,
 "oy": 2477,
 "numbers": 2478,
 "nda": 2479,
 "ns": 2480,
 "net": 2481,
 "nat": 2482,
 "modi": 2483,
 "ministers": 2484,
 "meat": 2485,
 "myanmar": 2486,
 "mult": 2487,
 "mit": 2488,
 "mir": 2489,
 "mig": 2490,
 "mem": 2491,
 "member": 2492,
 "man": 2493,
 "mal": 2494,
 "lished": 2495,
 "liance": 2496,
 "leader": 2497,
 "lanka": 2498,
 "lobal": 2499,
 "kho": 2500,
 "khand": 2501,
 "kash": 2502,
 "kashmir": 2503,
 "kame": 2504,
 "kamee": 2505,
 "kameez": 2506,
 "just": 2507,
 "january": 2508,
 "jhar": 2509,
 "jharkhand": 2510,
 "itec": 2511,
 "ite": 2512,
 "irth": 2513,
 "ira": 2514,
 "ings": 2515,
 "influence": 2516,
 "indira": 2517,
 "indigen": 2518,
 "indigenous": 2519,
 "increasingly": 2520,
 "invol": 2521,
 "ined": 2522,
 "imated": 2523,
 "ica": 2524,
 "iz": 2525,
 "idi": 2526,
 "idian": 2527,
 "ians": 2528,
 "hindustan": 2529,
 "head": 2530,
 "house": 2531,
 "his": 2532,
 "her": 2533,
 "gupta": 2534,
 "greater": 2535,
 "gree": 2536,
 "greek": 2537,
 "grad": 2538,
 "gradually": 2539,
 "gu": 2540,
 "gondwana": 2541,
 "global": 2542,
 "ga": 2543,
 "frica": 2544,
 "fort": 2545,
 "ferent": 2546,
 "features": 2547,
 "factor": 2548,
 "found": 2549,
 "fem": 2550,
 "femal": 2551,
 "fast": 2552,
 "extens": 2553,
 "extant": 2554,
 "exports": 2555,
 "every": 2556,
 "estimated": 2557,
 "estab": 2558,
 "established": 2559,
 "ergy": 2560,
 "ergen": 2561,
 "energy": 2562,
 "enac": 2563,
 "enacted": 2564,
 "employ": 2565,
 "emergen": 2566,
 "elected": 2567,
 "elites": 2568,
 "ets": 2569,
 "ef": 2570,
 "drav": 2571,
 "dravidian": 2572,
 "dram": 2573,
 "dramas": 2574,
 "different": 2575,
 "directly": 2576,
 "development": 2577,
 "democratic": 2578,
 "decl": 2579,
 "decades": 2580,
 "creat": 2581,
 "court": 2582,
 "cooking": 2583,
 "continued": 2584,
 "conducted": 2585,
 "composed": 2586,
 "compan": 2587,
 "commonly": 2588,
 "civilisation": 2589,
 "chr": 2590,
 "cav": 2591,
 "car": 2592,
 "call": 2593,
 "called": 2594,
 "biodiversity": 2595,
 "bhā": 2596,
 "below": 2597,
 "brah": 2598,
 "birth": 2599,
 "bar": 2600,
 "atical": 2601,
 "astri": 2602,
 "associ": 2603,
 "asian": 2604,
 "architec": 2605,
 "ared": 2606,
 "approximately": 2607,
 "app": 2608,
 "amm": 2609,
 "alth": 2610,
 "alliance": 2611,
 "aksh": 2612,
 "agriculture": 2613,
 "agricultural": 2614,
 "again": 2615,
 "across": 2616,
 "ably": 2617,
 "ai": 2618,
 "africa": 2619,
 "7th": 2620,
 "written": 2621,
 "weapons": 2622,
 "waist": 2623,
 "would": 2624,
 "went": 2625,
 "wear": 2626,
 "village": 2627,
 "vij": 2628,
 "vijay": 2629,
 "vijayan": 2630,
 "vijayanag": 2631,
 "vijayanagar": 2632,
 "vijayanagara": 2633,
 "very": 2634,
 "veri": 2635,
 "verage": 2636,
 "venu": 2637,
 "venues": 2638,
 "ves": 2639,
 "utes": 2640,
 "ush": 2641,
 "ured": 2642,
 "urbanisation": 2643,
 "urta": 2644,
 "urr": 2645,
 "urrenc": 2646,
 "urrency": 2647,
 "urid": 2648,
 "uridar": 2649,
 "uridars": 2650,
 "urdu": 2651,
 "unto": 2652,
 "untou": 2653,
 "untouch": 2654,
 "untouchab": 2655,
 "untouchabil": 2656,
 "untouchability": 2657,
 "ulos": 2658,
 "ulosis": 2659,
 "uled": 2660,
 "uber": 2661,
 "uberc": 2662,
 "uberculosis": 2663,
 "tribal": 2664,
 "transmit": 2665,
 "transmitted": 2666,
 "trod": 2667,
 "troduced": 2668,
 "today": 2669,
 "then": 2670,
 "those": 2671,
 "territorial": 2672,
 "tected": 2673,
 "tax": 2674,
 "tuberculosis": 2675,
 "tre": 2676,
 "treat": 2677,
 "treaty": 2678,
 "tex": 2679,
 "texts": 2680,
 "test": 2681,
 "temp": 2682,
 "temple": 2683,
 "suppor": 2684,
 "supported": 2685,
 "summer": 2686,
 "strength": 2687,
 "stituent": 2688,
 "status": 2689,
 "still": 2690,
 "sputes": 2691,
 "spor": 2692,
 "sports": 2693,
 "small": 2694,
 "sikhs": 2695,
 "sikhism": 2696,
 "signed": 2697,
 "show": 2698,
 "shes": 2699,
 "share": 2700,
 "sel": 2701,
 "self": 2702,
 "seals": 2703,
 "schools": 2704,
 "sched": 2705,
 "scheduled": 2706,
 "sover": 2707,
 "sovere": 2708,
 "sovereign": 2709,
 "sovereignty": 2710,
 "somet": 2711,
 "sometimes": 2712,
 "slow": 2713,
 "sites": 2714,
 "sang": 2715,
 "sangam": 2716,
 "rust": 2717,
 "rivers": 2718,
 "rick": 2719,
 "ricket": 2720,
 "resident": 2721,
 "residents": 2722,
 "remaining": 2723,
 "revenues": 2724,
 "refer": 2725,
 "recent": 2726,
 "rebe": 2727,
 "rebel": 2728,
 "rebell": 2729,
 "rebellion": 2730,
 "reach": 2731,
 "reached": 2732,
 "rajpu": 2733,
 "rajputs": 2734,
 "rajiv": 2735,
 "rather": 2736,
 "range": 2737,
 "ran": 2738,
 "qual": 2739,
 "quality": 2740,
 "punjabi": 2741,
 "putra": 2742,
 "promise": 2743,
 "produc": 2744,
 "process": 2745,
 "protected": 2746,
 "present": 2747,
 "pract": 2748,
 "practic": 2749,
 "practices": 2750,
 "populous": 2751,
 "politics": 2752,
 "policies": 2753,
 "post": 2754,
 "plains": 2755,
 "peace": 2756,
 "parts": 2757,
 "partic": 2758,
 "particular": 2759,
 "pover": 2760,
 "poverty": 2761,
 "pall": 2762,
 "pallav": 2763,
 "pallavas": 2764,
 "others": 2765,
 "osi": 2766,
 "osen": 2767,
 "origin": 2768,
 "originally": 2769,
 "ory": 2770,
 "oods": 2771,
 "ont": 2772,
 "ometres": 2773,
 "oming": 2774,
 "oli": 2775,
 "oka": 2776,
 "ographics": 2777,
 "office": 2778,
 "ot": 2779,
 "oose": 2780,
 "northwest": 2781,
 "northeast": 2782,
 "natal": 2783,
 "nings": 2784,
 "near": 2785,
 "name": 2786,
 "na": 2787,
 "multi": 2788,
 "much": 2789,
 "migration": 2790,
 "ments": 2791,
 "mediate": 2792,
 "mediately": 2793,
 "mathematical": 2794,
 "marriages": 2795,
 "makes": 2796,
 "may": 2797,
 "maputra": 2798,
 "mi": 2799,
 "marg": 2800,
 "margins": 2801,
 "mamm": 2802,
 "mammals": 2803,
 "latter": 2804,
 "loss": 2805,
 "loose": 2806,
 "ling": 2807,
 "line": 2808,
 "lay": 2809,
 "law": 2810,
 "laws": 2811,
 "lal": 2812,
 "lades": 2813,
 "ladesh": 2814,
 "kaveri": 2815,
 "kurta": 2816,
 "kosi": 2817,
 "kil": 2818,
 "kilometres": 2819,
 "jaw": 2820,
 "jawa": 2821,
 "jawahar": 2822,
 "jawaharlal": 2823,
 "jam": 2824,
 "jammu": 2825,
 "iving": 2826,
 "ives": 2827,
 "islamic": 2828,
 "iss": 2829,
 "islands": 2830,
 "ising": 2831,
 "ised": 2832,
 "international": 2833,
 "influences": 2834,
 "inequality": 2835,
 "industrial": 2836,
 "independence": 2837,
 "introduced": 2838,
 "institution": 2839,
 "incom": 2840,
 "income": 2841,
 "immediately": 2842,
 "imals": 2843,
 "ight": 2844,
 "ii": 2845,
 "if": 2846,
 "hub": 2847,
 "himalayan": 2848,
 "heredi": 2849,
 "having": 2850,
 "hau": 2851,
 "hindus": 2852,
 "hab": 2853,
 "habit": 2854,
 "governments": 2855,
 "generally": 2856,
 "goods": 2857,
 "ge": 2858,
 "geograph": 2859,
 "gav": 2860,
 "gave": 2861,
 "gas": 2862,
 "front": 2863,
 "formal": 2864,
 "forests": 2865,
 "folk": 2866,
 "fined": 2867,
 "extensive": 2868,
 "expand": 2869,
 "expanding": 2870,
 "exch": 2871,
 "exchange": 2872,
 "exam": 2873,
 "example": 2874,
 "etym": 2875,
 "estic": 2876,
 "endemic": 2877,
 "employed": 2878,
 "emergenc": 2879,
 "emergency": 2880,
 "emb": 2881,
 "embly": 2882,
 "eight": 2883,
 "each": 2884,
 "drain": 2885,
 "dominion": 2886,
 "domestic": 2887,
 "diction": 2888,
 "disputes": 2889,
 "dishes": 2890,
 "diment": 2891,
 "desert": 2892,
 "ders": 2893,
 "democracy": 2894,
 "demographics": 2895,
 "decc": 2896,
 "deccan": 2897,
 "decade": 2898,
 "cultures": 2899,
 "contributions": 2900,
 "contains": 2901,
 "constitutional": 2902,
 "consists": 2903,
 "constituent": 2904,
 "companies": 2905,
 "commerc": 2906,
 "commercial": 2907,
 "compromise": 2908,
 "coastal": 2909,
 "classes": 2910,
 "climate": 2911,
 "churidars": 2912,
 "chosen": 2913,
 "chhau": 2914,
 "capita": 2915,
 "cause": 2916,
 "currency": 2917,
 "crust": 2918,
 "cricket": 2919,
 "could": 2920,
 "ces": 2921,
 "came": 2922,
 "brahmaputra": 2923,
 "bhārat": 2924,
 "bhang": 2925,
 "bhangra": 2926,
 "becoming": 2927,
 "belong": 2928,
 "being": 2929,
 "bay": 2930,
 "bas": 2931,
 "basin": 2932,
 "bang": 2933,
 "bangladesh": 2934,
 "assert": 2935,
 "assembly": 2936,
 "ashoka": 2937,
 "aryan": 2938,
 "arts": 2939,
 "armies": 2940,
 "area": 2941,
 "architecture": 2942,
 "arr": 2943,
 "arab": 2944,
 "arabian": 2945,
 "anted": 2946,
 "another": 2947,
 "animals": 2948,
 "akbar": 2949,
 "administration": 2950,
 "adop": 2951,
 "added": 2952,
 "average": 2953,
 "50s": 2954,
 "3th": 2955,
 "20th": 2956,
 "19th": 2957,
 "1950s": 2958,
 "13th": 2959,
 "ἰν": 2960,
 "ἰνδ": 2961,
 "zor": 2962,
 "zoro": 2963,
 "zoroastri": 2964,
 "zoroastrian": 2965,
 "zoroastrianism": 2966,
 "ym": 2967,
 "ymns": 2968,
 "yaksh": 2969,
 "yakshag": 2970,
 "yakshagana": 2971,
 "wides": 2972,
 "widespre": 2973,
 "widespread": 2974,
 "where": 2975,
 "whereas": 2976,
 "what": 2977,
 "welf": 2978,
 "welfare": 2979,
 "weep": 2980,
 "wealth": 2981,
 "ways": 2982,
 "warri": 2983,
 "warrior": 2984,
 "warriors": 2985,
 "ward": 2986,
 "wards": 2987,
 "wns": 2988,
 "wind": 2989,
 "winds": 2990,
 "votion": 2991,
 "voted": 2992,
 "violent": 2993,
 "villages": 2994,
 "vidence": 2995,
 "vided": 2996,
 "victor": 2997,
 "victories": 2998,
 "vice": 2999,
 "viet": 3000,
 "vide": 3001,
 "ventually": 3002,
 "vention": 3003,
 "vels": 3004,
 "vedic": 3005,
 "varna": 3006,
 "various": 3007,
 "vor": 3008,
 "vorce": 3009,
 "vives": 3010,
 "vanc": 3011,
 "vanced": 3012,
 "va": 3013,
 "vajp": 3014,
 "vajpay": 3015,
 "vajpaye": 3016,
 "vajpayee": 3017,
 "usually": 3018,
 "usc": 3019,
 "uscri": 3020,
 "uscript": 3021,
 "urvives": 3022,
 "urred": 3023,
 "uris": 3024,
 "urisdiction": 3025,
 "ups": 3026,
 "upation": 3027,
 "unter": 3028,
 "unres": 3029,
 "unresol": 3030,
 "unresolved": 3031,
 "unitary": 3032,
 "une": 3033,
 "uncommon": 3034,
 "umb": 3035,
 "umbai": 3036,
 "ultane": 3037,
 "ultaneous": 3038,
 "ultaneously": 3039,
 "ulk": 3040,
 "uck": 3041,
 "ution": 3042,
 "uous": 3043,
 "uis": 3044,
 "uisine": 3045,
 "ud": 3046,
 "udy": 3047,
 "uce": 3048,
 "tspo": 3049,
 "tspots": 3050,
 "tside": 3051,
 "transformed": 3052,
 "towns": 3053,
 "towards": 3054,
 "top": 3055,
 "tom": 3056,
 "tober": 3057,
 "throughout": 3058,
 "threat": 3059,
 "threaten": 3060,
 "threatened": 3061,
 "therefore": 3062,
 "thereafter": 3063,
 "therers": 3064,
 "thor": 3065,
 "thorn": 3066,
 "thing": 3067,
 "tha": 3068,
 "thail": 3069,
 "thailand": 3070,
 "territory": 3071,
 "teristic": 3072,
 "technological": 3073,
 "taxes": 3074,
 "ttom": 3075,
 "tle": 3076,
 "tig": 3077,
 "tiger": 3078,
 "templ": 3079,
 "temples": 3080,
 "tas": 3081,
 "tary": 3082,
 "systems": 3083,
 "suppl": 3084,
 "supplanted": 3085,
 "sump": 3086,
 "sumption": 3087,
 "subsequently": 3088,
 "subst": 3089,
 "substant": 3090,
 "substantially": 3091,
 "supre": 3092,
 "supreme": 3093,
 "super": 3094,
 "supercontinent": 3095,
 "strong": 3096,
 "strongly": 3097,
 "steam": 3098,
 "steamed": 3099,
 "stead": 3100,
 "study": 3101,
 "stre": 3102,
 "stand": 3103,
 "standar": 3104,
 "standardi": 3105,
 "standardis": 3106,
 "standardised": 3107,
 "spreading": 3108,
 "speaking": 3109,
 "speakers": 3110,
 "sphere": 3111,
 "soviet": 3112,
 "soon": 3113,
 "sole": 3114,
 "simultaneously": 3115,
 "simil": 3116,
 "similar": 3117,
 "sider": 3118,
 "short": 3119,
 "shores": 3120,
 "shy": 3121,
 "shou": 3122,
 "shoul": 3123,
 "shoulder": 3124,
 "shiv": 3125,
 "shiva": 3126,
 "she": 3127,
 "shastri": 3128,
 "shared": 3129,
 "shal": 3130,
 "shalwars": 3131,
 "severe": 3132,
 "severely": 3133,
 "settled": 3134,
 "settle": 3135,
 "settlement": 3136,
 "setting": 3137,
 "serving": 3138,
 "service": 3139,
 "series": 3140,
 "sex": 3141,
 "sediment": 3142,
 "seats": 3143,
 "seas": 3144,
 "sease": 3145,
 "script": 3146,
 "scrip": 3147,
 "scr": 3148,
 "scrim": 3149,
 "scrimin": 3150,
 "scriminat": 3151,
 "scriminatory": 3152,
 "scal": 3153,
 "scale": 3154,
 "survives": 3155,
 "sind": 3156,
 "sindhu": 3157,
 "saw": 3158,
 "sav": 3159,
 "savour": 3160,
 "savoury": 3161,
 "sap": 3162,
 "sapi": 3163,
 "sapiens": 3164,
 "saf": 3165,
 "safe": 3166,
 "safegu": 3167,
 "safeguar": 3168,
 "safeguard": 3169,
 "ruling": 3170,
 "rulers": 3171,
 "ruled": 3172,
 "rought": 3173,
 "role": 3174,
 "road": 3175,
 "ritual": 3176,
 "ritically": 3177,
 "rice": 3178,
 "rief": 3179,
 "riefly": 3180,
 "ression": 3181,
 "resp": 3182,
 "respon": 3183,
 "response": 3184,
 "reser": 3185,
 "reserves": 3186,
 "renewable": 3187,
 "remained": 3188,
 "related": 3189,
 "relat": 3190,
 "relative": 3191,
 "rew": 3192,
 "returned": 3193,
 "report": 3194,
 "repe": 3195,
 "repeated": 3196,
 "repeatedly": 3197,
 "reme": 3198,
 "remely": 3199,
 "reforms": 3200,
 "reform": 3201,
 "reasing": 3202,
 "rea": 3203,
 "reathing": 3204,
 "rative": 3205,
 "rail": 3206,
 "railways": 3207,
 "round": 3208,
 "rgar": 3209,
 "rgarh": 3210,
 "rap": 3211,
 "rapid": 3212,
 "rapidly": 3213,
 "ranges": 3214,
 "producer": 3215,
 "produced": 3216,
 "produce": 3217,
 "procl": 3218,
 "procla": 3219,
 "proclaim": 3220,
 "proclaiming": 3221,
 "provided": 3222,
 "prob": 3223,
 "probably": 3224,
 "presence": 3225,
 "prevent": 3226,
 "proli": 3227,
 "prolifer": 3228,
 "proliferation": 3229,
 "prising": 3230,
 "prin": 3231,
 "princes": 3232,
 "portion": 3233,
 "policy": 3234,
 "poll": 3235,
 "pollution": 3236,
 "points": 3237,
 "pointed": 3238,
 "plied": 3239,
 "play": 3240,
 "played": 3241,
 "plant": 3242,
 "peror": 3243,
 "perial": 3244,
 "percent": 3245,
 "percentage": 3246,
 "parties": 3247,
 "partially": 3248,
 "parent": 3249,
 "parents": 3250,
 "paintings": 3251,
 "push": 3252,
 "pend": 3253,
 "pendent": 3254,
 "past": 3255,
 "pastoral": 3256,
 "pants": 3257,
 "pal": 3258,
 "overran": 3259,
 "ouses": 3260,
 "ourish": 3261,
 "outside": 3262,
 "organiz": 3263,
 "organization": 3264,
 "organisation": 3265,
 "orally": 3266,
 "open": 3267,
 "onds": 3268,
 "onset": 3269,
 "only": 3270,
 "omo": 3271,
 "ology": 3272,
 "olid": 3273,
 "olav": 3274,
 "olavira": 3275,
 "olation": 3276,
 "ods": 3277,
 "occurred": 3278,
 "occupation": 3279,
 "occas": 3280,
 "occasions": 3281,
 "october": 3282,
 "ove": 3283,
 "otspots": 3284,
 "oth": 3285,
 "oetic": 3286,
 "oeticide": 3287,
 "och": 3288,
 "oce": 3289,
 "ocean": 3290,
 "numeral": 3291,
 "numerals": 3292,
 "notably": 3293,
 "notable": 3294,
 "nonviolent": 3295,
 "newly": 3296,
 "networks": 3297,
 "network": 3298,
 "nepal": 3299,
 "nationalist": 3300,
 "nin": 3301,
 "ninth": 3302,
 "next": 3303,
 "natic": 3304,
 "narr": 3305,
 "narrow": 3306,
 "muslims": 3307,
 "moist": 3308,
 "model": 3309,
 "merch": 3310,
 "merchants": 3311,
 "meh": 3312,
 "mehrgarh": 3313,
 "mega": 3314,
 "megadiverse": 3315,
 "meas": 3316,
 "measured": 3317,
 "mean": 3318,
 "meaning": 3319,
 "mathematicians": 3320,
 "married": 3321,
 "markets": 3322,
 "marked": 3323,
 "marshy": 3324,
 "manuscript": 3325,
 "males": 3326,
 "make": 3327,
 "mainly": 3328,
 "mahav": 3329,
 "mahavira": 3330,
 "mumbai": 3331,
 "mers": 3332,
 "mat": 3333,
 "mater": 3334,
 "material": 3335,
 "materials": 3336,
 "lowering": 3337,
 "literat": 3338,
 "literature": 3339,
 "literary": 3340,
 "limited": 3341,
 "lief": 3342,
 "lib": 3343,
 "liberal": 3344,
 "liberalisation": 3345,
 "legis": 3346,
 "legislat": 3347,
 "legislature": 3348,
 "leges": 3349,
 "legates": 3350,
 "leared": 3351,
 "lex": 3352,
 "levels": 3353,
 "layer": 3354,
 "lasted": 3355,
 "largely": 3356,
 "larger": 3357,
 "lank": 3358,
 "lankan": 3359,
 "living": 3360,
 "lived": 3361,
 "live": 3362,
 "lies": 3363,
 "less": 3364,
 "length": 3365,
 "late": 3366,
 "laksh": 3367,
 "lakshad": 3368,
 "lakshadweep": 3369,
 "lack": 3370,
 "lackb": 3371,
 "lackbuck": 3372,
 "knit": 3373,
 "jurisdiction": 3374,
 "june": 3375,
 "jar": 3376,
 "jarat": 3377,
 "jant": 3378,
 "janta": 3379,
 "jack": 3380,
 "jackets": 3381,
 "izens": 3382,
 "ivity": 3383,
 "isting": 3384,
 "istian": 3385,
 "istianity": 3386,
 "issions": 3387,
 "isolation": 3388,
 "isen": 3389,
 "isans": 3390,
 "iron": 3391,
 "involving": 3392,
 "involved": 3393,
 "intervention": 3394,
 "independent": 3395,
 "includes": 3396,
 "included": 3397,
 "instead": 3398,
 "innings": 3399,
 "ining": 3400,
 "inform": 3401,
 "information": 3402,
 "inct": 3403,
 "inated": 3404,
 "imperial": 3405,
 "imatic": 3406,
 "ilding": 3407,
 "igaw": 3408,
 "igawat": 3409,
 "igawatts": 3410,
 "ified": 3411,
 "ideas": 3412,
 "iduous": 3413,
 "icles": 3414,
 "ither": 3415,
 "ires": 3416,
 "ily": 3417,
 "humans": 3418,
 "hubs": 3419,
 "historically": 3420,
 "historical": 3421,
 "historians": 3422,
 "hindustani": 3423,
 "highly": 3424,
 "highest": 3425,
 "hereditary": 3426,
 "headed": 3427,
 "health": 3428,
 "harapp": 3429,
 "harappa": 3430,
 "habitat": 3431,
 "hymns": 3432,
 "hunter": 3433,
 "houses": 3434,
 "hotspots": 3435,
 "homo": 3436,
 "hal": 3437,
 "half": 3438,
 "guptas": 3439,
 "gujarat": 3440,
 "groups": 3441,
 "green": 3442,
 "greenhouse": 3443,
 "geography": 3444,
 "gener": 3445,
 "generated": 3446,
 "gender": 3447,
 "garment": 3448,
 "garlic": 3449,
 "gatherers": 3450,
 "gods": 3451,
 "give": 3452,
 "ginnings": 3453,
 "gigawatts": 3454,
 "gang": 3455,
 "gangetic": 3456,
 "gain": 3457,
 "gained": 3458,
 "frame": 3459,
 "framework": 3460,
 "fortified": 3461,
 "fortable": 3462,
 "formally": 3463,
 "force": 3464,
 "followed": 3465,
 "flourish": 3466,
 "figure": 3467,
 "females": 3468,
 "female": 3469,
 "feature": 3470,
 "feated": 3471,
 "fastest": 3472,
 "farmers": 3473,
 "fused": 3474,
 "food": 3475,
 "foeticide": 3476,
 "flowering": 3477,
 "flow": 3478,
 "fish": 3479,
 "fam": 3480,
 "family": 3481,
 "fall": 3482,
 "fair": 3483,
 "fairs": 3484,
 "fai": 3485,
 "faith": 3486,
 "extensively": 3487,
 "extremely": 3488,
 "extinct": 3489,
 "extend": 3490,
 "extends": 3491,
 "exporter": 3492,
 "exported": 3493,
 "expression": 3494,
 "expans": 3495,
 "expansion": 3496,
 "existing": 3497,
 "excav": 3498,
 "excavated": 3499,
 "everyday": 3500,
 "eurasia": 3501,
 "etymology": 3502,
 "ethical": 3503,
 "eta": 3504,
 "etah": 3505,
 "essent": 3506,
 "essential": 3507,
 "espite": 3508,
 "ereal": 3509,
 "epic": 3510,
 "enter": 3511,
 "endemism": 3512,
 "endments": 3513,
 "ending": 3514,
 "ense": 3515,
 "emperor": 3516,
 "emissions": 3517,
 "emen": 3518,
 "economies": 3519,
 "evol": 3520,
 "evidence": 3521,
 "eventually": 3522,
 "either": 3523,
 "eetah": 3524,
 "edic": 3525,
 "edicts": 3526,
 "due": 3527,
 "dry": 3528,
 "dominance": 3529,
 "ditional": 3530,
 "diffused": 3531,
 "divorce": 3532,
 "divide": 3533,
 "disease": 3534,
 "discriminatory": 3535,
 "died": 3536,
 "did": 3537,
 "dholavira": 3538,
 "dham": 3539,
 "dhamma": 3540,
 "derived": 3541,
 "declared": 3542,
 "decreasing": 3543,
 "deciduous": 3544,
 "devotion": 3545,
 "dependent": 3546,
 "delegates": 3547,
 "defined": 3548,
 "defeated": 3549,
 "drew": 3550,
 "down": 3551,
 "do": 3552,
 "despite": 3553,
 "dense": 3554,
 "dates": 3555,
 "creativity": 3556,
 "creating": 3557,
 "countries": 3558,
 "counc": 3559,
 "council": 3560,
 "contributed": 3561,
 "consolid": 3562,
 "consumption": 3563,
 "consider": 3564,
 "complex": 3565,
 "commonwealth": 3566,
 "commerce": 3567,
 "comprising": 3568,
 "comfortable": 3569,
 "colleges": 3570,
 "coasts": 3571,
 "coastline": 3572,
 "cost": 3573,
 "cosine": 3574,
 "cloth": 3575,
 "close": 3576,
 "climatic": 3577,
 "civilian": 3578,
 "citizens": 3579,
 "christianity": 3580,
 "child": 3581,
 "chess": 3582,
 "cheetah": 3583,
 "char": 3584,
 "charac": 3585,
 "characteristic": 3586,
 "chain": 3587,
 "chains": 3588,
 "centre": 3589,
 "caves": 3590,
 "castes": 3591,
 "carved": 3592,
 "carnatic": 3593,
 "cut": 3594,
 "cups": 3595,
 "cuisine": 3596,
 "critically": 3597,
 "cold": 3598,
 "cleared": 3599,
 "city": 3600,
 "cess": 3601,
 "cereal": 3602,
 "ced": 3603,
 "cat": 3604,
 "cattle": 3605,
 "building": 3606,
 "borne": 3607,
 "borders": 3608,
 "bottom": 3609,
 "births": 3610,
 "biotech": 3611,
 "biosphere": 3612,
 "belief": 3613,
 "beginnings": 3614,
 "bulk": 3615,
 "brought": 3616,
 "broad": 3617,
 "briefly": 3618,
 "breathing": 3619,
 "bread": 3620,
 "bonds": 3621,
 "blackbuck": 3622,
 "best": 3623,
 "associated": 3624,
 "associate": 3625,
 "assinated": 3626,
 "assassinated": 3627,
 "asians": 3628,
 "artists": 3629,
 "artistic": 3630,
 "artisans": 3631,
 "articles": 3632,
 "arms": 3633,
 "archa": 3634,
 "archaic": 3635,
 "arisen": 3636,
 "appear": 3637,
 "appointed": 3638,
 "applied": 3639,
 "annually": 3640,
 "annual": 3641,
 "amendments": 3642,
 "against": 3643,
 "affairs": 3644,
 "adopted": 3645,
 "administrative": 3646,
 "advent": 3647,
 "advanced": 3648,
 "additional": 3649,
 "acha": 3650,
 "achaemen": 3651,
 "action": 3652,
 "access": 3653,
 "above": 3654,
 "aː": 3655,
 "ajanta": 3656,
 "8th": 3657,
 "6th": 3658,
 "60s": 3659,
 "30s": 3660,
 "1960s": 3661,
 "1930s": 3662,
 "1st": 3663,
 "18th": 3664,
 "17th": 3665,
 "10th": 3666,
 "ἰνδό": 3667,
 "ἰνδός": 3668,
 "ἰνδί": 3669,
 "ἰνδία": 3670,
 "ṭā": 3671,
 "ṭādh": 3672,
 "ṭādhy": 3673,
 "ṭādhyā": 3674,
 "ṭādhyāy": 3675,
 "ṭādhyāyī": 3676,
 "ṣṭādhyāyī": 3677,
 "ṇin": 3678,
 "ṇini": 3679,
 "ṇa": 3680,
 "ˈst": 3681,
 "ˈstaː": 3682,
 "ˈstaːn": 3683,
 "ˈb": 3684,
 "ˈbʱ": 3685,
 "ˈbʱaː": 3686,
 "ˈbʱaːɾ": 3687,
 "ˈbʱaːɾə": 3688,
 "ˈbʱaːɾət": 3689,
 "ʊˈstaːn": 3690,
 "ɪnd": 3691,
 "ɪndʊˈstaːn": 3692,
 "ɦɪndʊˈstaːn": 3693,
 "āṇini": 3694,
 "āya": 3695,
 "āyaṇa": 3696,
 "ām": 3697,
 "āmāyaṇa": 3698,
 "ābhā": 3699,
 "ābhār": 3700,
 "ābhārata": 3701,
 "ze": 3702,
 "zebu": 3703,
 "xfor": 3704,
 "xford": 3705,
 "xed": 3706,
 "writing": 3707,
 "weigh": 3708,
 "weights": 3709,
 "wathe": 3710,
 "wathes": 3711,
 "wer": 3712,
 "weri": 3713,
 "weriw": 3714,
 "weriwal": 3715,
 "weriwala": 3716,
 "view": 3717,
 "viewed": 3718,
 "venth": 3719,
 "veda": 3720,
 "varied": 3721,
 "vari": 3722,
 "variations": 3723,
 "viron": 3724,
 "vironment": 3725,
 "vironmental": 3726,
 "vin": 3727,
 "vince": 3728,
 "vary": 3729,
 "varying": 3730,
 "utan": 3731,
 "ushered": 3732,
 "uralistic": 3733,
 "unpre": 3734,
 "unpreced": 3735,
 "unprecedent": 3736,
 "unprecedented": 3737,
 "unl": 3738,
 "unlin": 3739,
 "unlink": 3740,
 "unlinked": 3741,
 "uction": 3742,
 "utr": 3743,
 "utrition": 3744,
 "uet": 3745,
 "uett": 3746,
 "uettes": 3747,
 "tribes": 3748,
 "try": 3749,
 "tol": 3750,
 "toler": 3751,
 "tolerance": 3752,
 "thic": 3753,
 "termit": 3754,
 "termitt": 3755,
 "termittent": 3756,
 "termittently": 3757,
 "tery": 3758,
 "ters": 3759,
 "terr": 3760,
 "terrac": 3761,
 "terracot": 3762,
 "terracotta": 3763,
 "teries": 3764,
 "taxation": 3765,
 "tural": 3766,
 "ttery": 3767,
 "tel": 3768,
 "telling": 3769,
 "teach": 3770,
 "teachings": 3771,
 "tch": 3772,
 "tching": 3773,
 "tak": 3774,
 "taken": 3775,
 "stretching": 3776,
 "stream": 3777,
 "steat": 3778,
 "steatite": 3779,
 "statuettes": 3780,
 "stress": 3781,
 "stressed": 3782,
 "story": 3783,
 "storytelling": 3784,
 "specif": 3785,
 "specifically": 3786,
 "spok": 3787,
 "spoken": 3788,
 "southwest": 3789,
 "socially": 3790,
 "socio": 3791,
 "smop": 3792,
 "smopol": 3793,
 "smopolit": 3794,
 "smopolitan": 3795,
 "slowly": 3796,
 "shar": 3797,
 "shares": 3798,
 "sha": 3799,
 "settling": 3800,
 "seventh": 3801,
 "seen": 3802,
 "scripts": 3803,
 "scriptions": 3804,
 "scripture": 3805,
 "sci": 3806,
 "science": 3807,
 "swathes": 3808,
 "son": 3809,
 "sac": 3810,
 "sacri": 3811,
 "sacrific": 3812,
 "sacrifices": 3813,
 "roughly": 3814,
 "root": 3815,
 "resist": 3816,
 "resistance": 3817,
 "renewed": 3818,
 "renewal": 3819,
 "render": 3820,
 "rendering": 3821,
 "regist": 3822,
 "registers": 3823,
 "referred": 3824,
 "referr": 3825,
 "referring": 3826,
 "reference": 3827,
 "rej": 3828,
 "rejec": 3829,
 "rejecting": 3830,
 "refl": 3831,
 "reflec": 3832,
 "reflected": 3833,
 "refined": 3834,
 "rating": 3835,
 "భార": 3836,
 "భారత": 3837,
 "దేశం": 3838,
 "భారతదేశం": 3839,
 "దేశా": 3840,
 "న్నాయి": 3841,
 "తీయ": 3842,
 "లలో": 3843,
 "మైన": 3844,
 "ఉంది": 3845,
 "ఉన్నాయి": 3846,
 "నికి": 3847,
 "la": 3848,
 "los": 3849,
 "లను": 3850,
 "रत": 3851,
 "भारत": 3852,
 "ió": 3853,
 "దేశ": 3854,
 "కూడా": 3855,
 "అధి": 3856,
 "లతో": 3857,
 "లకు": 3858,
 "las": 3859,
 "que": 3860,
 "ఒక": 3861,
 "ión": 3862,
 "వ్యవ": 3863,
 "లోని": 3864,
 "రైలు": 3865,
 "మొద": 3866,
 "మధ్య": 3867,
 "భారతీయ": 3868,
 "పేరు": 3869,
 "తర": 3870,
 "చింది": 3871,
 "ás": 3872,
 "más": 3873,
 "వ్యవస్థ": 3874,
 "una": 3875,
 "ación": 3876,
 "రాలు": 3877,
 "మార్గా": 3878,
 "ప్రధా": 3879,
 "ప్రధాన": 3880,
 "దక్షి": 3881,
 "ado": 3882,
 "చిన": 3883,
 "హిందూ": 3884,
 "భారతదేశంలో": 3885,
 "పార్టీ": 3886,
 "పరి": 3887,
 "ía": 3888,
 "డిన": 3889,
 "జనా": 3890,
 "చ్చింది": 3891,
 "వచ్చింది": 3892,
 "యాలు": 3893,
 "ien": 3894,
 "ప్రాంతా": 3895,
 "ప్రభు": 3896,
 "ప్రపం": 3897,
 "acion": 3898,
 "తరు": 3899,
 "జనాభా": 3900,
 "ఉన్న": 3901,
 "ia": 3902,
 "ఇతర": 3903,
 "అయి": 3904,
 "వాణా": 3905,
 "మార్గాలు": 3906,
 "భాష": 3907,
 "దిన": 3908,
 "తరువా": 3909,
 "జరి": 3910,
 "como": 3911,
 "amb": 3912,
 "క్కువ": 3913,
 "కాలం": 3914,
 "para": 3915,
 "ada": 3916,
 "అధికా": 3917,
 "అతి": 3918,
 "సరి": 3919,
 "lo": 3920,
 "రాష్ట్రా": 3921,
 "ier": 3922,
 "రాష్ట్ర": 3923,
 "రాజ": 3924,
 "రవాణా": 3925,
 "రణం": 3926,
 "pa": 3927,
 "మొదటి": 3928,
 "ముఖ్య": 3929,
 "ci": 3930,
 "భారతదేశ": 3931,
 "ప్రస్తు": 3932,
 "ప్రదా": 3933,
 "fu": 3934,
 "పాకి": 3935,
 "న్నారు": 3936,
 "nacion": 3937,
 "añ": 3938,
 "నాలు": 3939,
 "ido": 3940,
 "దేశానికి": 3941,
 "దక్షిణా": 3942,
 "గిన": 3943,
 "గల": 3944,
 "ambi": 3945,
 "కాలంలో": 3946,
 "ís": 3947,
 "కాంగ్రె": 3948,
 "país": 3949,
 "nacional": 3950,
 "కలి": 3951,
 "én": 3952,
 "tambi": 3953,
 "también": 3954,
 "ఎన్నో": 3955,
 "este": 3956,
 "ఇది": 3957,
 "అనే": 3958,
 "హద్దు": 3959,
 "pob": 3960,
 "స్తారు": 3961,
 "ios": 3962,
 "సియా": 3963,
 "సిని": 3964,
 "సినిమా": 3965,
 "cada": 3966,
 "సాధిం": 3967,
 "entre": 3968,
 "ura": 3969,
 "సరిహద్దు": 3970,
 "mayor": 3971,
 "సంగీ": 3972,
 "án": 3973,
 "రెండు": 3974,
 "మంత్రి": 3975,
 "ento": 3976,
 "మత": 3977,
 "ప్రతి": 3978,
 "ún": 3979,
 "ప్పటి": 3980,
 "gob": 3981,
 "పెద్ద": 3982,
 "ados": 3983,
 "నుండి": 3984,
 "దారు": 3985,
 "చిన్న": 3986,
 "కేంద్ర": 3987,
 "és": 3988,
 "ఏర్ప": 3989,
 "pobl": 3990,
 "ఎక్కువ": 3991,
 "iento": 3992,
 "ఉప": 3993,
 "ఉత్త": 3994,
 "iene": 3995,
 "అయిన": 3996,
 "cu": 3997,
 "హదారు": 3998,
 "స్వతం": 3999,
 "స్థానం": 4000,
 "años": 4001,
 "sur": 4002,
 "స్కృతి": 4003,
 "సౌక": 4004,
 "mente": 4005,
 "సింది": 4006,
 "సభ": 4007,
 "dos": 4008,
 "వివి": 4009,
 "వివిధ": 4010,
 "parte": 4011,
 "లన": 4012,
 "amente": 4013,
 "రాష్ట్రప": 4014,
 "రాజకీ": 4015,
 "రహదారు": 4016,
 "undo": 4017,
 "otr": 4018,
 "రకా": 4019,
 "mundo": 4020,
 "ముఖ": 4021,
 "ante": 4022,
 "మన": 4023,
 "te": 4024,
 "భిన్న": 4025,
 "భారత్": 4026,
 "sig": 4027,
 "భాగం": 4028,
 "బహు": 4029,
 "princi": 4030,
 "ప్రాంతాలు": 4031,
 "ప్రభుత్వం": 4032,
 "población": 4033,
 "imiento": 4034,
 "ప్రముఖ": 4035,
 "నడి": 4036,
 "fuer": 4037,
 "దేశాల": 4038,
 "ales": 4039,
 "దేశంలోని": 4040,
 "దేశంలో": 4041,
 "త్యధి": 4042,
 "తరువాత": 4043,
 "జన": 4044,
 "za": 4045,
 "గంగా": 4046,
 "sus": 4047,
 "గలు": 4048,
 "ierno": 4049,
 "gobierno": 4050,
 "క్రీడ": 4051,
 "dial": 4052,
 "tiene": 4053,
 "కోవ": 4054,
 "ismo": 4055,
 "అత్యధి": 4056,
 "స్వాతం": 4057,
 "ando": 4058,
 "స్తాన్": 4059,
 "సంగీతం": 4060,
 "సము": 4061,
 "undial": 4062,
 "mundial": 4063,
 "సమా": 4064,
 "mic": 4065,
 "సమ": 4066,
 "iones": 4067,
 "శతా": 4068,
 "శతాబ్దం": 4069,
 "వంటి": 4070,
 "వచ్చి": 4071,
 "indios": 4072,
 "comer": 4073,
 "లుగా": 4074,
 "ít": 4075,
 "ర్ధిక": 4076,
 "రైల్వే": 4077,
 "రాష్ట్రపతి": 4078,
 "రాజ్యా": 4079,
 "seg": 4080,
 "principal": 4081,
 "రహదారులు": 4082,
 "రంగా": 4083,
 "ores": 4084,
 "రణ": 4085,
 "మొత్తం": 4086,
 "మలు": 4087,
 "indio": 4088,
 "భారతదేశానికి": 4089,
 "grand": 4090,
 "ప్రాచీ": 4091,
 "ప్రాచీన": 4092,
 "gran": 4093,
 "ప్రస్తుతం": 4094,
 "encia": 4095,
 "ప్రపంచం": 4096,
 "ప్రపంచ": 4097,
 "ప్రధానమంత్రి": 4098,
 "ప్రజా": 4099,
 "dur": 4100,
 "ప్రజ": 4101,
 "tos": 4102,
 "పట్ట": 4103,
 "ras": 4104,
 "నులు": 4105,
 "idos": 4106,
 "నుక": 4107,
 "నిర్వ": 4108,
 "fue": 4109,
 "నడిపిం": 4110,
 "emás": 4111,
 "durante": 4112,
 "desde": 4113,
 "además": 4114,
 "నది": 4115,
 "polít": 4116,
 "దేశాలలో": 4117,
 "estados": 4118,
 "estado": 4119,
 "తులు": 4120,
 "comerc": 4121,
 "tradic": 4122,
 "తన": 4123,
 "ఢిల్లీ": 4124,
 "టాయి": 4125,
 "según": 4126,
 "జాతీయ": 4127,
 "prop": 4128,
 "జరిగిన": 4129,
 "చైనా": 4130,
 "కోర్టు": 4131,
 "jer": 4132,
 "కూడు": 4133,
 "dé": 4134,
 "కూడిన": 4135,
 "ba": 4136,
 "కాంగ్రెసు": 4137,
 "కారం": 4138,
 "ue": 4139,
 "ఒకటి": 4140,
 "ఎక్కువగా": 4141,
 "ఎన్ను": 4142,
 "sob": 4143,
 "sobre": 4144,
 "primer": 4145,
 "ఉంటాయి": 4146,
 "poder": 4147,
 "ఇవి": 4148,
 "lu": 4149,
 "ఆర్ధిక": 4150,
 "econó": 4151,
 "అనేక": 4152,
 "అధిక": 4153,
 "అత్యధిక": 4154,
 "అభి": 4155,
 "cual": 4156,
 "అను": 4157,
 "antes": 4158,
 "స్వామ్య": 4159,
 "స్యత": 4160,
 "aciones": 4161,
 "స్థానంలో": 4162,
 "సౌకర్యా": 4163,
 "సాంప్రదా": 4164,
 "sist": 4165,
 "సామ్రా": 4166,
 "perio": 4167,
 "సంప్రదా": 4168,
 "otros": 4169,
 "incluy": 4170,
 "సర్వీ": 4171,
 "da": 4172,
 "సర్వీసు": 4173,
 "సభ్యు": 4174,
 "శాస్త్రం": 4175,
 "aron": 4176,
 "వేగంగా": 4177,
 "వృద్ధి": 4178,
 "వారి": 4179,
 "వాతా": 4180,
 "వాతావ": 4181,
 "వాతావరణం": 4182,
 "వరి": 4183,
 "adas": 4184,
 "ళ్లను": 4185,
 "లైన": 4186,
 "úb": 4187,
 "లిత": 4188,
 "లాలు": 4189,
 "úblic": 4190,
 "లవు": 4191,
 "vida": 4192,
 "uent": 4193,
 "ర్థిక": 4194,
 "రిత్ర": 4195,
 "subcontinente": 4196,
 "sistem": 4197,
 "ros": 4198,
 "రాష్ట్రాలు": 4199,
 "రాజకీయ": 4200,
 "రాస్యత": 4201,
 "públic": 4202,
 "రాల": 4203,
 "odo": 4204,
 "norte": 4205,
 "రణంగా": 4206,
 "millones": 4207,
 "mayoría": 4208,
 "రకాల": 4209,
 "itar": 4210,
 "యింది": 4211,
 "han": 4212,
 "యక": 4213,
 "encuent": 4214,
 "economía": 4215,
 "comun": 4216,
 "మైనది": 4217,
 "మేన": 4218,
 "ciud": 4219,
 "úl": 4220,
 "మూడు": 4221,
 "మాన": 4222,
 "últ": 4223,
 "మాత్రం": 4224,
 "మహా": 4225,
 "últim": 4226,
 "మతా": 4227,
 "vir": 4228,
 "భాషలు": 4229,
 "virt": 4230,
 "బ్రిటి": 4231,
 "బాద్": 4232,
 "uvo": 4233,
 "ప్రకారం": 4234,
 "ప్పటికీ": 4235,
 "sistema": 4236,
 "rí": 4237,
 "పైగా": 4238,
 "పాకిస్థా": 4239,
 "pero": 4240,
 "ofic": 4241,
 "పాలిత": 4242,
 "పాలన": 4243,
 "oficial": 4244,
 "పాద": 4245,
 "oeste": 4246,
 "పాత్ర": 4247,
 "nacionales": 4248,
 "పాక్": 4249,
 "nue": 4250,
 "పరిశ్ర": 4251,
 "పట్టణా": 4252,
 "miemb": 4253,
 "పండు": 4254,
 "mient": 4255,
 "और": 4256,
 "mientras": 4257,
 "पर": 4258,
 "పశ్చి": 4259,
 "imperio": 4260,
 "igual": 4261,
 "పద్ధ": 4262,
 "कर": 4263,
 "idad": 4264,
 "పత": 4265,
 "న్యాయ": 4266,
 "icas": 4267,
 "నిక": 4268,
 "నగ": 4269,
 "ias": 4270,
 "దినాలు": 4271,
 "దక్షిణాన": 4272,
 "దక్షిణ": 4273,
 "तीय": 4274,
 "తున్న": 4275,
 "hac": 4276,
 "está": 4277,
 "తంగా": 4278,
 "enta": 4279,
 "तथा": 4280,
 "convirt": 4281,
 "भार": 4282,
 "డింది": 4283,
 "कार": 4284,
 "ción": 4285,
 "డియా": 4286,
 "డవ": 4287,
 "úmer": 4288,
 "úmero": 4289,
 "भारतीय": 4290,
 "టుంది": 4291,
 "íodo": 4292,
 "एक": 4293,
 "ías": 4294,
 "इस": 4295,
 "టిలో": 4296,
 "టారు": 4297,
 "ánic": 4298,
 "చేయ": 4299,
 "तक": 4300,
 "vas": 4301,
 "చెందిన": 4302,
 "किया": 4303,
 "చుకోవ": 4304,
 "साथ": 4305,
 "unión": 4306,
 "भाषा": 4307,
 "siglo": 4308,
 "క్షరాస్యత": 4309,
 "ritánic": 4310,
 "కొన్ని": 4311,
 "pública": 4312,
 "दक्षि": 4313,
 "కేంద్రపాలిత": 4314,
 "కుటుం": 4315,
 "principales": 4316,
 "सर": 4317,
 "período": 4318,
 "pi": 4319,
 "కార్య": 4320,
 "pes": 4321,
 "दक्षिण": 4322,
 "కలిగి": 4323,
 "राज्य": 4324,
 "కత": 4325,
 "número": 4326,
 "ఉత్తర": 4327,
 "militar": 4328,
 "सम": 4329,
 "ఉన్నారు": 4330,
 "ఇండియా": 4331,
 "ఆర్థిక": 4332,
 "ivo": 4333,
 "ఆధా": 4334,
 "सब": 4335,
 "सबसे": 4336,
 "ఆక్ర": 4337,
 "istán": 4338,
 "राज": 4339,
 "indias": 4340,
 "అభివృద్ధి": 4341,
 "estas": 4342,
 "అని": 4343,
 "హిందూదేశం": 4344,
 "హించింది": 4345,
 "ente": 4346,
 "హిమా": 4347,
 "హిమాల": 4348,
 "económic": 4349,
 "यह": 4350,
 "धान": 4351,
 "హణ": 4352,
 "divers": 4353,
 "స్వతంత్ర": 4354,
 "స్లామా": 4355,
 "बाद": 4356,
 "స్లామాబాద్": 4357,
 "dio": 4358,
 "जिस": 4359,
 "స్త్రీయ": 4360,
 "స్కృతిక": 4361,
 "సినిమాలు": 4362,
 "cultura": 4363,
 "సాంప్రదాయి": 4364,
 "crec": 4365,
 "जन": 4366,
 "సాంప్రదాయిక": 4367,
 "ciones": 4368,
 "సాంస్కృతిక": 4369,
 "సార": 4370,
 "británic": 4371,
 "సర్వీసులు": 4372,
 "సమాఖ్య": 4373,
 "bol": 4374,
 "సంప్రదాయాలు": 4375,
 "సంస్కృతి": 4376,
 "रूप": 4377,
 "argo": 4378,
 "సంస్కృ": 4379,
 "णराज्य": 4380,
 "गणराज्य": 4381,
 "సంవ": 4382,
 "ér": 4383,
 "సంఘ": 4384,
 "vez": 4385,
 "बहु": 4386,
 "sociales": 4387,
 "rec": 4388,
 "సంకీ": 4389,
 "ración": 4390,
 "శెలవు": 4391,
 "देश": 4392,
 "శాస్త్రీయ": 4393,
 "quet": 4394,
 "శాఖ": 4395,
 "गया": 4396,
 "países": 4397,
 "मान": 4398,
 "opa": 4399,
 "వ్యవస్థలో": 4400,
 "omb": 4401,
 "వైవి": 4402,
 "muchas": 4403,
 "ministro": 4404,
 "వెనుక": 4405,
 "lugar": 4406,
 "వెనుకటి": 4407,
 "ieron": 4408,
 "వులు": 4409,
 "शास": 4410,
 "వీటిలో": 4411,
 "విస్తారు": 4412,
 "idiom": 4413,
 "విభిన్న": 4414,
 "వార": 4415,
 "grande": 4416,
 "fueron": 4417,
 "अधि": 4418,
 "entos": 4419,
 "వారస": 4420,
 "వాణి": 4421,
 "सरकार": 4422,
 "endo": 4423,
 "बना": 4424,
 "వాణిజ్య": 4425,
 "వచ్చిన": 4426,
 "década": 4427,
 "copa": 4428,
 "వంట": 4429,
 "ato": 4430,
 "विश्व": 4431,
 "aca": 4432,
 "వల్ల": 4433,
 "रिक": 4434,
 "ús": 4435,
 "úsica": 4436,
 "వలం": 4437,
 "ón": 4438,
 "వల": 4439,
 "వరాలు": 4440,
 "चीन": 4441,
 "íquet": 4442,
 "ళిక": 4443,
 "uas": 4444,
 "उत्त": 4445,
 "లోయ": 4446,
 "trav": 4447,
 "través": 4448,
 "ti": 4449,
 "हुआ": 4450,
 "లేదా": 4451,
 "पूर्व": 4452,
 "లుగు": 4453,
 "tan": 4454,
 "धर्म": 4455,
 "లక్ష": 4456,
 "जाता": 4457,
 "sí": 4458,
 "अप": 4459,
 "రోడ్డు": 4460,
 "రైళ్లను": 4461,
 "república": 4462,
 "सार": 4463,
 "రుషు": 4464,
 "pués": 4465,
 "orient": 4466,
 "రుపు": 4467,
 "शासन": 4468,
 "musul": 4469,
 "రిగా": 4470,
 "miembros": 4471,
 "हिन्दी": 4472,
 "mara": 4473,
 "समय": 4474,
 "రికత": 4475,
 "शिया": 4476,
 "música": 4477,
 "రాష్ట్రాల": 4478,
 "mant": 4479,
 "రాజ్యాం": 4480,
 "राज्यों": 4481,
 "రాజు": 4482,
 "नाम": 4483,
 "రంగం": 4484,
 "leng": 4485,
 "incluyen": 4486,
 "देशों": 4487,
 "రత": 4488,
 "inc": 4489,
 "अन्य": 4490,
 "iedad": 4491,
 "हुई": 4492,
 "యంలో": 4493,
 "सद": 4494,
 "hacia": 4495,
 "hamb": 4496,
 "మొదలైన": 4497,
 "वर्ष": 4498,
 "మొట్ట": 4499,
 "guer": 4500,
 "మొట్టమొదటి": 4501,
 "लिए": 4502,
 "ముఖ్యమైన": 4503,
 "grandes": 4504,
 "महा": 4505,
 "esta": 4506,
 "మారు": 4507,
 "enz": 4508,
 "మంది": 4509,
 "embargo": 4510,
 "మతి": 4511,
 "ej": 4512,
 "భారతదేశపు": 4513,
 "dist": 4514,
 "భారతం": 4515,
 "बंध": 4516,
 "दिया": 4517,
 "భాషా": 4518,
 "después": 4519,
 "काल": 4520,
 "desigual": 4521,
 "బెంగా": 4522,
 "బెంగాలీ": 4523,
 "బహుళ": 4524,
 "desarr": 4525,
 "బంగ్లా": 4526,
 "desarrol": 4527,
 "अनु": 4528,
 "బంగ్లాదే": 4529,
 "crecimiento": 4530,
 "críquet": 4531,
 "comercio": 4532,
 "संस्कृ": 4533,
 "బంగా": 4534,
 "comenz": 4535,
 "लग": 4536,
 "బడిన": 4537,
 "cin": 4538,
 "bengala": 4539,
 "तिक": 4540,
 "బడింది": 4541,
 "año": 4542,
 "alg": 4543,
 "బడ": 4544,
 "क्षेत्र": 4545,
 "करो": 4546,
 "బడతా": 4547,
 "élit": 4548,
 "उत्तर": 4549,
 "ప్రారం": 4550,
 "át": 4551,
 "होता": 4552,
 "हुए": 4553,
 "स्तान": 4554,
 "ప్రస్తుత": 4555,
 "zas": 4556,
 "ప్రభుత్వా": 4557,
 "मिल": 4558,
 "urbana": 4559,
 "ప్రపంచంలో": 4560,
 "ub": 4561,
 "ప్రతిపాద": 4562,
 "ప్రతిపాదన": 4563,
 "ua": 4564,
 "पश्चि": 4565,
 "ప్రజాస్వామ్య": 4566,
 "పొందిన": 4567,
 "चुना": 4568,
 "tradicion": 4569,
 "పెనీ": 4570,
 "केंद्र": 4571,
 "territorio": 4572,
 "పురుషు": 4573,
 "tasa": 4574,
 "कारण": 4575,
 "sím": 4576,
 "एशिया": 4577,
 "పాకిస్థాన్": 4578,
 "rica": 4579,
 "इसके": 4580,
 "పాకిస్తాన్": 4581,
 "अंग्रे": 4582,
 "పాలిం": 4583,
 "recient": 4584,
 "పరిశ్రమలు": 4585,
 "साम्रा": 4586,
 "పతకా": 4587,
 "política": 4588,
 "పతకాలు": 4589,
 "placa": 4590,
 "संवि": 4591,
 "పండుగలు": 4592,
 "parlam": 4593,
 "संविधान": 4594,
 "పద": 4595,
 "parlamento": 4596,
 "रहा": 4597,
 "poc": 4598,
 "मुख": 4599,
 "న్నిక": 4600,
 "भाषाओं": 4601,
 "otras": 4602,
 "प्रमुख": 4603,
 "న్నది": 4604,
 "occident": 4605,
 "नहीं": 4606,
 "करोड़": 4607,
 "llan": 4608,
 "करने": 4609,
 "నుంచి": 4610,
 "कई": 4611,
 "నిర్వహణ": 4612,
 "idiomas": 4613,
 "अनुसार": 4614,
 "icos": 4615,
 "अधिक": 4616,
 "నాయక": 4617,
 "स्वतं": 4618,
 "स्वतंत्र": 4619,
 "నాగ": 4620,
 "extre": 4621,
 "समा": 4622,
 "నాగరికత": 4623,
 "estos": 4624,
 "व्यव": 4625,
 "నడిపించ": 4626,
 "especies": 4627,
 "व्यवस्था": 4628,
 "desarrollo": 4629,
 "ద్వారా": 4630,
 "derec": 4631,
 "लय": 4632,
 "దేశంగా": 4633,
 "దేశపు": 4634,
 "cuando": 4635,
 "मैदा": 4636,
 "conoc": 4637,
 "దాపు": 4638,
 "मंत्री": 4639,
 "దాదాపు": 4640,
 "प्राचीन": 4641,
 "దక్షిణాసియా": 4642,
 "comercial": 4643,
 "తిక": 4644,
 "प्रधान": 4645,
 "clás": 4646,
 "తరువాతి": 4647,
 "निर्मा": 4648,
 "తమి": 4649,
 "ciudades": 4650,
 "cam": 4651,
 "दश": 4652,
 "టర్ల": 4653,
 "चुनावों": 4654,
 "జాతి": 4655,
 "ग्रेस": 4656,
 "cal": 4657,
 "జంబూ": 4658,
 "सित": 4659,
 "జరుపు": 4660,
 "జన్మ": 4661,
 "bajo": 4662,
 "చేసింది": 4663,
 "arqu": 4664,
 "संख्या": 4665,
 "చాలా": 4666,
 "చాల": 4667,
 "ष्ट्रीय": 4668,
 "लोक": 4669,
 "ños": 4670,
 "చారు": 4671,
 "చన": 4672,
 "ín": 4673,
 "र्थिक": 4674,
 "राष्ट्रीय": 4675,
 "बहुत": 4676,
 "గుర్తిం": 4677,
 "ían": 4678,
 "बढ़": 4679,
 "గాంధీ": 4680,
 "zon": 4681,
 "గమ": 4682,
 "zonas": 4683,
 "पाकि": 4684,
 "uras": 4685,
 "पाकिस्तान": 4686,
 "पह": 4687,
 "గణ": 4688,
 "ఖండ": 4689,
 "नेतृ": 4690,
 "umento": 4691,
 "निक": 4692,
 "క్రీడలు": 4693,
 "todos": 4694,
 "క్రమా": 4695,
 "tiemp": 4696,
 "tiempo": 4697,
 "द्वारा": 4698,
 "కోర్టులు": 4699,
 "territorios": 4700,
 "कॉंग्रेस": 4701,
 "tier": 4702,
 "उप": 4703,
 "కోట్ల": 4704,
 "rícol": 4705,
 "కొని": 4706,
 "región": 4707,
 "आर्थिक": 4708,
 "represent": 4709,
 "सैन्य": 4710,
 "साम्राज्य": 4711,
 "కేవలం": 4712,
 "संघ": 4713,
 "కూడుకు": 4714,
 "rein": 4715,
 "కుంటారు": 4716,
 "quier": 4717,
 "लर": 4718,
 "కింద": 4719,
 "presidente": 4720,
 "लन": 4721,
 "poco": 4722,
 "కార్యక్రమా": 4723,
 "pobre": 4724,
 "కారణంగా": 4725,
 "pib": 4726,
 "यन": 4727,
 "కాగా": 4728,
 "person": 4729,
 "pendi": 4730,
 "కలిసి": 4731,
 "माणु": 4732,
 "partidos": 4733,
 "भूमि": 4734,
 "కంపెనీ": 4735,
 "partido": 4736,
 "ología": 4737,
 "प्रधानमंत्री": 4738,
 "కంటే": 4739,
 "परमाणु": 4740,
 "पर्व": 4741,
 "కంగా": 4742,
 "niv": 4743,
 "nivel": 4744,
 "కల": 4745,
 "mujer": 4746,
 "निर्माण": 4747,
 "mujeres": 4748,
 "दशक": 4749,
 "కథ": 4750,
 "mov": 4751,
 "उन": 4752,
 "ఒకటిగా": 4753,
 "mon": 4754,
 "ఒకే": 4755,
 "सरका": 4756,
 "ఎన్నిక": 4757,
 "mas": 4758,
 "शता": 4759,
 "ఉత్తరా": 4760,
 "शताब्दी": 4761,
 "विका": 4762,
 "ఉండ": 4763,
 "llanura": 4764,
 "विकास": 4765,
 "ఇస్లామాబాద్": 4766,
 "lleg": 4767,
 "ఆహా": 4768,
 "लिये": 4769,
 "रब": 4770,
 "అధికారం": 4771,
 "योग": 4772,
 "iste": 4773,
 "అధికార": 4774,
 "मध्य": 4775,
 "inde": 4776,
 "అవి": 4777,
 "independi": 4778,
 "అవ": 4779,
 "importantes": 4780,
 "भाई": 4781,
 "ición": 4782,
 "197": 4783,
 "पश्चिम": 4784,
 "ior": 4785,
 "न्याया": 4786,
 "హిమాలయ": 4787,
 "హిందీ": 4788,
 "नेतृत्व": 4789,
 "హార": 4790,
 "humanos": 4791,
 "धीरे": 4792,
 "hambr": 4793,
 "द्वीप": 4794,
 "హస్రా": 4795,
 "guerra": 4796,
 "హస్రాబ్ది": 4797,
 "gobern": 4798,
 "जिसमें": 4799,
 "స్వాతంత్ర్యం": 4800,
 "गठ": 4801,
 "స్వాతంత్ర్య": 4802,
 "స్థావరాలు": 4803,
 "fuerza": 4804,
 "गई": 4805,
 "స్థానా": 4806,
 "ensa": 4807,
 "कार्य": 4808,
 "స్థానాలను": 4809,
 "స్త్రీలు": 4810,
 "స్తులు": 4811,
 "encuentra": 4812,
 "ओर": 4813,
 "elecciones": 4814,
 "ईसा": 4815,
 "స్కరణ": 4816,
 "eleg": 4817,
 "अरब": 4818,
 "సౌకర్యాలు": 4819,
 "अन्त": 4820,
 "సౌకర్యాలలో": 4821,
 "dico": 4822,
 "సౌకర్య": 4823,
 "సూచిం": 4824,
 "సూచించిన": 4825,
 "cuenta": 4826,
 "हरी": 4827,
 "సూచించినట్లు": 4828,
 "convirtió": 4829,
 "సియాలో": 4830,
 "compañ": 4831,
 "compañía": 4832,
 "हर": 4833,
 "సింధూ": 4834,
 "cinco": 4835,
 "bos": 4836,
 "సింధూనది": 4837,
 "antig": 4838,
 "సింధు": 4839,
 "स्वतंत्रता": 4840,
 "स्थित": 4841,
 "సిద్ధి": 4842,
 "agrícol": 4843,
 "सेना": 4844,
 "సిక్కు": 4845,
 "adores": 4846,
 "साल": 4847,
 "సారస్వతం": 4848,
 "समाज": 4849,
 "సామ్రాజ్యం": 4850,
 "संस्कृति": 4851,
 "సాధించిన": 4852,
 "संबंध": 4853,
 "సాధించ": 4854,
 "aba": 4855,
 "सभा": 4856,
 "సాంకే": 4857,
 "aumento": 4858,
 "సాంకేతిక": 4859,
 "últimos": 4860,
 "सक": 4861,
 "సార్వ": 4862,
 "érmin": 4863,
 "సార్వత్రి": 4864,
 "érminos": 4865,
 "సార్వత్రిక": 4866,
 "ámara": 4867,
 "సామా": 4868,
 "yas": 4869,
 "वर्षों": 4870,
 "సామాజి": 4871,
 "वर्त": 4872,
 "సామాజిక": 4873,
 "సామ": 4874,
 "varios": 4875,
 "సామర్థ్యం": 4876,
 "varias": 4877,
 "సరిహద్దుగా": 4878,
 "vé": 4879,
 "राजनी": 4880,
 "సముద్రం": 4881,
 "राष्ट्र": 4882,
 "సమరం": 4883,
 "సభ్యులు": 4884,
 "util": 4885,
 "సభను": 4886,
 "సంవత్స": 4887,
 "रंप": 4888,
 "utiliz": 4889,
 "సంగీత": 4890,
 "సంస్కరణ": 4891,
 "upos": 4892,
 "रक्षा": 4893,
 "unos": 4894,
 "युक्त": 4895,
 "సంబం": 4896,
 "unas": 4897,
 "मन": 4898,
 "సంఖ్య": 4899,
 "ultanato": 4900,
 "సహస్రాబ్ది": 4901,
 "ución": 4902,
 "मत": 4903,
 "ualmente": 4904,
 "సన": 4905,
 "షయాలు": 4906,
 "tradiciones": 4907,
 "बीच": 4908,
 "శెలవుదినాలు": 4909,
 "traba": 4910,
 "प्रति": 4911,
 "శాసన": 4912,
 "trabajo": 4913,
 "శాన్య": 4914,
 "tod": 4915,
 "धिका": 4916,
 "వ్యాపా": 4917,
 "términos": 4918,
 "दर": 4919,
 "వ్యవస్థకు": 4920,
 "tuvo": 4921,
 "వైవిధ్య": 4922,
 "tres": 4923,
 "त्रीय": 4924,
 "వేల": 4925,
 "símbol": 4926,
 "जाती": 4927,
 "వేదా": 4928,
 "símbolos": 4929,
 "जनसंख्या": 4930,
 "superi": 4931,
 "जब": 4932,
 "విషయాలు": 4933,
 "విలు": 4934,
 "stitución": 4935,
 "गंगा": 4936,
 "sigu": 4937,
 "गति": 4938,
 "వారసత్వా": 4939,
 "వాయు": 4940,
 "siglos": 4941,
 "వాద": 4942,
 "segu": 4943,
 "क्षेत्रीय": 4944,
 "कुल": 4945,
 "వహిం": 4946,
 "sultanato": 4947,
 "एवं": 4948,
 "sido": 4949,
 "हिमा": 4950,
 "వలన": 4951,
 "real": 4952,
 "వర్తి": 4953,
 "हालाँ": 4954,
 "हालाँकि": 4955,
 "వర్గా": 4956,
 "साम": 4957,
 "ques": 4958,
 "వచ్చు": 4959,
 "propios": 4960,
 "संयुक्त": 4961,
 "ళలు": 4962,
 "productos": 4963,
 "विदे": 4964,
 "లౌకి": 4965,
 "poster": 4966,
 "లౌకిక": 4967,
 "भूमिका": 4968,
 "లోమీ": 4969,
 "भाज": 4970,
 "లోమీటర్ల": 4971,
 "pesar": 4972,
 "भाजपा": 4973,
 "లోమీటర్లకు": 4974,
 "pakistán": 4975,
 "भग": 4976,
 "లోను": 4977,
 "orientales": 4978,
 "organización": 4979,
 "बंधन": 4980,
 "లోక్‌స": 4981,
 "operación": 4982,
 "बड़ा": 4983,
 "प्लेट": 4984,
 "లోక్‌సభ": 4985,
 "onces": 4986,
 "प्रार": 4987,
 "ning": 4988,
 "లోక్": 4989,
 "प्रभा": 4990,
 "లేదు": 4991,
 "muy": 4992,
 "movimiento": 4993,
 "లెక్క": 4994,
 "प्रकार": 4995,
 "militares": 4996,
 "पार्टी": 4997,
 "లుచుకోవ": 4998,
 "manten": 4999,
 "पहले": 5000,
 "లుచుకోవడం": 5001,
 "निभाई": 5002,
 "లాహో": 5003,
 "नदि": 5004,
 "literatura": 5005,
 "లలోను": 5006,
 "lenguas": 5007,
 "धुनिक": 5008,
 "leo": 5009,
 "धिकारिक": 5010,
 "లక్షణా": 5011,
 "दोनों": 5012,
 "ke": 5013,
 "तीस": 5014,
 "లంపి": 5015,
 "ja": 5016,
 "లచే": 5017,
 "ización": 5018,
 "तर": 5019,
 "లగు": 5020,
 "independiente": 5021,
 "లక్టో": 5022,
 "iles": 5023,
 "तमिल": 5024,
 "లక్టోర": 5025,
 "లక్టోరల్": 5026,
 "ip": 5027,
 "जिन": 5028,
 "ర్షణ": 5029,
 "ర్వోత్త": 5030,
 "histori": 5031,
 "ర్వోత్తరాలు": 5032,
 "जाते": 5033,
 "ర్యాయాలు": 5034,
 "hinduismo": 5035,
 "गठबंधन": 5036,
 "ర్తిగా": 5037,
 "habl": 5038,
 "गर": 5039,
 "ర్జాతీయ": 5040,
 "ర్కొంటు": 5041,
 "hace": 5042,
 "రోపా": 5043,
 "hos": 5044,
 "రైల్వేశాఖ": 5045,
 "hast": 5046,
 "करना": 5047,
 "hasta": 5048,
 "इसी": 5049,
 "రేడు": 5050,
 "grupos": 5051,
 "इन": 5052,
 "రెండో": 5053,
 "ganó": 5054,
 "fuerzas": 5055,
 "రెండవ": 5056,
 "forma": 5057,
 "आधुनिक": 5058,
 "రూపాం": 5059,
 "आधिकारिक": 5060,
 "flor": 5061,
 "अपने": 5062,
 "రూపం": 5063,
 "अपनी": 5064,
 "अव": 5065,
 "రీక్ష": 5066,
 "fica": 5067,
 "రించింది": 5068,
 "अलग": 5069,
 "రాజ్యాంగం": 5070,
 "final": 5071,
 "होती": 5072,
 "రాజ్యాలుగా": 5073,
 "हिमालय": 5074,
 "రాజ్యాలు": 5075,
 "fi": 5076,
 "स्थाप": 5077,
 "రాజ్యం": 5078,
 "రాజ్యంగా": 5079,
 "संस्कृत": 5080,
 "రాజ్య": 5081,
 "estuvo": 5082,
 "संसद": 5083,
 "రంగంలో": 5084,
 "estil": 5085,
 "सह": 5086,
 "రలో": 5087,
 "eras": 5088,
 "शेष": 5089,
 "రమైన": 5090,
 "entonces": 5091,
 "రప": 5092,
 "encuentran": 5093,
 "शासित": 5094,
 "రపడిన": 5095,
 "emente": 5096,
 "రచ": 5097,
 "déc": 5098,
 "రచయి": 5099,
 "décadas": 5100,
 "विदेशी": 5101,
 "diversas": 5102,
 "विक": 5103,
 "రచయిత": 5104,
 "distas": 5105,
 "वाद": 5106,
 "యోగి": 5107,
 "derechos": 5108,
 "deport": 5109,
 "लीन": 5110,
 "యులు": 5111,
 "constitución": 5112,
 "యుత": 5113,
 "comerciales": 5114,
 "comenzó": 5115,
 "लित": 5116,
 "యమిం": 5117,
 "castas": 5118,
 "cámara": 5119,
 "యమించ": 5120,
 "británico": 5121,
 "लिका": 5122,
 "baja": 5123,
 "మౌర్య": 5124,
 "artes": 5125,
 "लावा": 5126,
 "మొదలైనవి": 5127,
 "మొదలగు": 5128,
 "लगभग": 5129,
 "रंपरा": 5130,
 "మొగలు": 5131,
 "arios": 5132,
 "మేనని": 5133,
 "रहे": 5134,
 "युग": 5135,
 "ముంబై": 5136,
 "aria": 5137,
 "मैदान": 5138,
 "मेरि": 5139,
 "ముస్లిం": 5140,
 "ములు": 5141,
 "बहुमत": 5142,
 "anos": 5143,
 "बर": 5144,
 "ముడి": 5145,
 "ముఖ్యం": 5146,
 "ముఖ్యంగా": 5147,
 "ano": 5148,
 "बन": 5149,
 "మీద": 5150,
 "మీదగా": 5151,
 "बड़े": 5152,
 "మార్గం": 5153,
 "बड़ी": 5154,
 "ampl": 5155,
 "प्राप्त": 5156,
 "మాత్ర": 5157,
 "प्रदेश": 5158,
 "మాత్రమే": 5159,
 "पालिका": 5160,
 "మహాత్మా": 5161,
 "adamente": 5162,
 "మనదేశం": 5163,
 "पार": 5164,
 "మతాలు": 5165,
 "ól": 5166,
 "మరో": 5167,
 "ólar": 5168,
 "पहा": 5169,
 "భౌగో": 5170,
 "ólares": 5171,
 "భౌగోళిక": 5172,
 "ánsc": 5173,
 "భూమి": 5174,
 "ánscrit": 5175,
 "ánscrito": 5176,
 "परंपरा": 5177,
 "భూభాగం": 5178,
 "áp": 5179,
 "భూటా": 5180,
 "భూటాన్": 5181,
 "utivo": 5182,
 "डॉलर": 5183,
 "భించాల": 5184,
 "unque": 5185,
 "जिसके": 5186,
 "uno": 5187,
 "जल": 5188,
 "భాషలను": 5189,
 "ubic": 5190,
 "భారతదేశంలోని": 5191,
 "चार": 5192,
 "భావిస్తారు": 5193,
 "భాగా": 5194,
 "tradicionales": 5195,
 "భాగాన్ని": 5196,
 "terc": 5197,
 "चल": 5198,
 "భాగ": 5199,
 "tercera": 5200,
 "tanto": 5201,
 "భరత": 5202,
 "tien": 5203,
 "tienen": 5204,
 "భక్తి": 5205,
 "sánscrito": 5206,
 "गांधी": 5207,
 "solo": 5208,
 "काम": 5209,
 "బ్రిటిష్": 5210,
 "reso": 5211,
 "బ్రిటిషు": 5212,
 "బ్రిటీ": 5213,
 "religios": 5214,
 "कह": 5215,
 "బితా": 5216,
 "relaciones": 5217,
 "regionales": 5218,
 "कर्ज": 5219,
 "బడతారు": 5220,
 "regiones": 5221,
 "अंग्रेजी": 5222,
 "బంగ్లాదేశ్‌ల": 5223,
 "rectamente": 5224,
 "अर्थ": 5225,
 "బంగారు": 5226,
 "rajya": 5227,
 "अमेरि": 5228,
 "బడ్డీ": 5229,
 "ráp": 5230,
 "होते": 5231,
 "ప్రారంభించాల": 5232,
 "renta": 5233,
 "हिन्दू": 5234,
 "propiedad": 5235,
 "हन": 5236,
 "ప్రాంతాల్లో": 5237,
 "principalmente": 5238,
 "ప్రాంతీయ": 5239,
 "primera": 5240,
 "ప్రాయ": 5241,
 "posterior": 5242,
 "हथि": 5243,
 "हथिया": 5244,
 "ప్రస్తుతము": 5245,
 "personas": 5246,
 "हथियार": 5247,
 "ప్రభుత్వాన్ని": 5248,
 "pap": 5249,
 "स्थापना": 5250,
 "ప్రపంచంలోని": 5251,
 "papel": 5252,
 "स्तृत": 5253,
 "ప్రతిపాదనకు": 5254,
 "pand": 5255,
 "स्तर": 5256,
 "ప్రతిప": 5257,
 "सामा": 5258,
 "ombres": 5259,
 "ప్రజాద": 5260,
 "oficiales": 5261,
 "सहयोग": 5262,
 "ప్రజాదరణ": 5263,
 "occidental": 5264,
 "समर्थ": 5265,
 "ప్రజలు": 5266,
 "nuevas": 5267,
 "समर्थन": 5268,
 "ప్రసిద్ధి": 5269,
 "naciones": 5270,
 "सर्वो": 5271,
 "ప్రయో": 5272,
 "nomb": 5273,
 "सर्वोच्च": 5274,
 "शील": 5275,
 "ప్రదే": 5276,
 "musulman": 5277,
 "musulmanes": 5278,
 "ప్పటికి": 5279,
 "modelo": 5280,
 "शत": 5281,
 "merc": 5282,
 "शक्ति": 5283,
 "ప్పటికినీ": 5284,
 "medios": 5285,
 "పోయింది": 5286,
 "mismo": 5287,
 "विस्तृत": 5288,
 "mica": 5289,
 "विवाद": 5290,
 "పేర్లు": 5291,
 "वाली": 5292,
 "పేర్కొ": 5293,
 "largo": 5294,
 "lés": 5295,
 "वायु": 5296,
 "పూర్వోత్తరాలు": 5297,
 "lok": 5298,
 "वर्तमान": 5299,
 "పూర్తిగా": 5300,
 "ivos": 5301,
 "वंश": 5302,
 "పుణు": 5303,
 "పుణులు": 5304,
 "పుట్టు": 5305,
 "ivamente": 5306,
 "वरी": 5307,
 "పుట్టుపూర్వోత్తరాలు": 5308,
 "పీఠ": 5309,
 "iva": 5310,
 "लोढ़": 5311,
 "పీఠభూమి": 5312,
 "लिया": 5313,
 "istas": 5314,
 "పాలించారు": 5315,
 "लाख": 5316,
 "పాలనలో": 5317,
 "रोपी": 5318,
 "islas": 5319,
 "रोपीय": 5320,
 "పాల్": 5321,
 "isión": 5322,
 "राजनीतिक": 5323,
 "పాలకు": 5324,
 "यूरोपीय": 5325,
 "युद्ध": 5326,
 "పాడు": 5327,
 "inglés": 5328,
 "मुख्य": 5329,
 "independencia": 5330,
 "పాడుకుం": 5331,
 "incluyendo": 5332,
 "मिला": 5333,
 "importante": 5334,
 "मरी": 5335,
 "పాడుకుంటూ": 5336,
 "igo": 5337,
 "भरा": 5338,
 "పాటు": 5339,
 "habitantes": 5340,
 "habían": 5341,
 "बार": 5342,
 "పశ్చిమాన": 5343,
 "había": 5344,
 "बनाने": 5345,
 "పశ్చిమ": 5346,
 "hombres": 5347,
 "बने": 5348,
 "పద్ధతి": 5349,
 "him": 5350,
 "बनी": 5351,
 "फ्रीका": 5352,
 "పదవి": 5353,
 "फल": 5354,
 "పట్టణాలు": 5355,
 "familia": 5356,
 "పవి": 5357,
 "fa": 5358,
 "प्रभाव": 5359,
 "పలు": 5360,
 "పర్వ": 5361,
 "extremo": 5362,
 "प्रतिशत": 5363,
 "पर्वत": 5364,
 "పర్యాయాలు": 5365,
 "exist": 5366,
 "పరీక్ష": 5367,
 "estat": 5368,
 "न्यायालय": 5369,
 "పరంగా": 5370,
 "estatus": 5371,
 "द्योग": 5372,
 "entro": 5373,
 "दृष्टि": 5374,
 "పడు": 5375,
 "elegido": 5376,
 "त्पाद": 5377,
 "పట్టా": 5378,
 "ejec": 5379,
 "ejecutivo": 5380,
 "डिया": 5381,
 "పక": 5382,
 "edad": 5383,
 "económicos": 5384,
 "जाना": 5385,
 "నేరేడు": 5386,
 "ectos": 5387,
 "जाति": 5388,
 "నేపాల్": 5389,
 "నెల": 5390,
 "eg": 5391,
 "जलवायु": 5392,
 "నుమలు": 5393,
 "जबकि": 5394,
 "నిర్వహించింది": 5395,
 "dis": 5396,
 "जलोढ़": 5397,
 "నిర్మిం": 5398,
 "गए": 5399,
 "def": 5400,
 "कुछ": 5401,
 "నియమించ": 5402,
 "किन्तु": 5403,
 "dólares": 5404,
 "करता": 5405,
 "నిపుణులు": 5406,
 "dentro": 5407,
 "करण": 5408,
 "నిడి": 5409,
 "dan": 5410,
 "danza": 5411,
 "నిడివి": 5412,
 "cuat": 5413,
 "cuatro": 5414,
 "कम": 5415,
 "నిజా": 5416,
 "costa": 5417,
 "నిజాలు": 5418,
 "consiste": 5419,
 "ऋतु": 5420,
 "నాలుగు": 5421,
 "condu": 5422,
 "నాలతో": 5423,
 "concent": 5424,
 "उस": 5425,
 "నగరాలు": 5426,
 "నగరాల": 5427,
 "comunidad": 5428,
 "उद्योग": 5429,
 "उत्पाद": 5430,
 "ధించిన": 5431,
 "coalición": 5432,
 "clásica": 5433,
 "इसकी": 5434,
 "దేశాలు": 5435,
 "clas": 5436,
 "आन्दो": 5437,
 "దేశాలను": 5438,
 "ciudad": 5439,
 "आदि": 5440,
 "अर्थव्यवस्था": 5441,
 "దులు": 5442,
 "centro": 5443,
 "अंग्रेज़ी": 5444,
 "cambi": 5445,
 "अमरी": 5446,
 "దుతున్న": 5447,
 "cambios": 5448,
 "దుగా": 5449,
 "así": 5450,
 "अभी": 5451,
 "agrícola": 5452,
 "अब": 5453,
 "దింది": 5454,
 "administración": 5455,
 "अफ्रीका": 5456,
 "aunque": 5457,
 "स्वरूप": 5458,
 "దాయి": 5459,
 "au": 5460,
 "దాయంలో": 5461,
 "स्थान": 5462,
 "త్వంలో": 5463,
 "últimas": 5464,
 "स्तार": 5465,
 "óme": 5466,
 "सेवा": 5467,
 "తెలుగు": 5468,
 "ómetr": 5469,
 "తూర్పు": 5470,
 "ómetros": 5471,
 "सून": 5472,
 "ércit": 5473,
 "सामाजि": 5474,
 "తుంది": 5475,
 "सामाजिक": 5476,
 "élites": 5477,
 "सरकारें": 5478,
 "తులతో": 5479,
 "élite": 5480,
 "संघी": 5481,
 "émic": 5482,
 "संघीय": 5483,
 "తమిళం": 5484,
 "émicas": 5485,
 "संगी": 5486,
 "తంలో": 5487,
 "áre": 5488,
 "संगीत": 5489,
 "áreas": 5490,
 "सल्त": 5491,
 "తంత్ర": 5492,
 "áfrica": 5493,
 "सल्तन": 5494,
 "తల": 5495,
 "áfica": 5496,
 "सल्तनत": 5497,
 "सफल": 5498,
 "తర్వా": 5499,
 "áb": 5500,
 "सत": 5501,
 "తర్జాతీయ": 5502,
 "yó": 5503,
 "తమై": 5504,
 "शुरू": 5505,
 "vert": 5506,
 "शांति": 5507,
 "తను": 5508,
 "vest": 5509,
 "व्यापार": 5510,
 "తక్కువ": 5511,
 "विस्तार": 5512,
 "ఢాకా": 5513,
 "vec": 5514,
 "विय": 5515,
 "డ్డాయి": 5516,
 "veces": 5517,
 "డైన": 5518,
 "udo": 5519,
 "वियत": 5520,
 "ucación": 5521,
 "డానికి": 5522,
 "uyó": 5523,
 "विभि": 5524,
 "विभिन्न": 5525,
 "డండి": 5526,
 "trat": 5527,
 "विभा": 5528,
 "టైటి": 5529,
 "tratado": 5530,
 "tran": 5531,
 "జాబితా": 5532,
 "वल": 5533,
 "todas": 5534,
 "वन": 5535,
 "జాతులు": 5536,
 "todo": 5537,
 "జరుపుకుంటారు": 5538,
 "toda": 5539,
 "लोगों": 5540,
 "జరిగే": 5541,
 "tierra": 5542,
 "लियन": 5543,
 "జనాభాతో": 5544,
 "tecn": 5545,
 "लना": 5546,
 "జనవరి": 5547,
 "tecnología": 5548,
 "జనతా": 5549,
 "tura": 5550,
 "జల": 5551,
 "tem": 5552,
 "रूस": 5553,
 "జమ్మూ": 5554,
 "राजनै": 5555,
 "చ్చని": 5556,
 "superior": 5557,
 "राजनैतिक": 5558,
 "stri": 5559,
 "यास": 5560,
 "చైనాను": 5561,
 "stria": 5562,
 "यक": 5563,
 "చెందుతున్న": 5564,
 "sociedad": 5565,
 "చెందాయి": 5566,
 "siguient": 5567,
 "मुस्लि": 5568,
 "చెప్పు": 5569,
 "seguido": 5570,
 "मिलियन": 5571,
 "చూడండి": 5572,
 "sejo": 5573,
 "मानसून": 5574,
 "చారిత్ర": 5575,
 "sit": 5576,
 "माल": 5577,
 "చవి": 5578,
 "rápido": 5579,
 "माना": 5580,
 "rurales": 5581,
 "महाद्वीप": 5582,
 "చరిత్ర": 5583,
 "religiones": 5584,
 "भाषाएँ": 5585,
 "reinos": 5586,
 "ब्रिटि": 5587,
 "చద": 5588,
 "reformas": 5589,
 "ब्रिटिश": 5590,
 "recientes": 5591,
 "बाहरी": 5592,
 "గ్లీషు": 5593,
 "recientemente": 5594,
 "बनाई": 5595,
 "గోదా": 5596,
 "realiz": 5597,
 "प्रौद्यो": 5598,
 "प्रौद्योगि": 5599,
 "గెలుచుకోవడం": 5600,
 "requ": 5601,
 "प्रौद्योगिकी": 5602,
 "గువ": 5603,
 "requer": 5604,
 "प्रारम्भ": 5605,
 "requerid": 5606,
 "प्रयास": 5607,
 "గినది": 5608,
 "requerida": 5609,
 "प्रच": 5610,
 "quierda": 5611,
 "గణతంత్ర": 5612,
 "quistán": 5613,
 "पूर्वी": 5614,
 "గత": 5615,
 "pue": 5616,
 "पूर्ण": 5617,
 "ఖనిజాలు": 5618,
 "క్రీడలలో": 5619,
 "pueb": 5620,
 "క్రీడా": 5621,
 "पुरा": 5622,
 "కోట్లకు": 5623,
 "princip": 5624,
 "కోబడతారు": 5625,
 "portaciones": 5626,
 "पास": 5627,
 "కూడుకుని": 5628,
 "కూడుకొని": 5629,
 "populares": 5630,
 "पार्टि": 5631,
 "políticos": 5632,
 "కూడి": 5633,
 "parl": 5634,
 "पश्चिमी": 5635,
 "కుటుంబా": 5636,
 "परी": 5637,
 "parlament": 5638,
 "కుటుంబ": 5639,
 "परि": 5640,
 "కులు": 5641,
 "paquistán": 5642,
 "pas": 5643,
 "కులాలు": 5644,
 "पड़ो": 5645,
 "కుల": 5646,
 "पड़ोसी": 5647,
 "ord": 5648,
 "नदियाँ": 5649,
 "కిందకు": 5650,
 "दिल्ली": 5651,
 "కిలోమీటర్లకు": 5652,
 "onde": 5653,
 "दारी": 5654,
 "కార్యక్రమాలు": 5655,
 "ográfica": 5656,
 "కాంగ్రెస్": 5657,
 "तरह": 5658,
 "కాహార": 5659,
 "ocho": 5660,
 "टन": 5661,
 "ocke": 5662,
 "కాశ్మీ": 5663,
 "ockey": 5664,
 "जून": 5665,
 "obtuvo": 5666,
 "जिसका": 5667,
 "కాలే": 5668,
 "noroeste": 5669,
 "जनता": 5670,
 "noreste": 5671,
 "जहाँ": 5672,
 "కాపాడుకుంటూ": 5673,
 "ningún": 5674,
 "छोड़": 5675,
 "musulm": 5676,
 "కళలు": 5677,
 "musulmana": 5678,
 "छोटे": 5679,
 "కబడ్డీ": 5680,
 "muchos": 5681,
 "चना": 5682,
 "mucho": 5683,
 "కన్న": 5684,
 "menudo": 5685,
 "manera": 5686,
 "गुप्त": 5687,
 "కనుమలు": 5688,
 "mes": 5689,
 "क्षर": 5690,
 "కనుక": 5691,
 "meseta": 5692,
 "ఒలంపి": 5693,
 "mand": 5694,
 "कोई": 5695,
 "mandato": 5696,
 "केवल": 5697,
 "ఐరోపా": 5698,
 "lev": 5699,
 "केन्द्र": 5700,
 "ఏర్పడ్డాయి": 5701,
 "ఎన్నుకోబడతారు": 5702,
 "किये": 5703,
 "ఎన్నికల్లో": 5704,
 "leb": 5705,
 "कहते": 5706,
 "ఎలక్టోరల్": 5707,
 "उसके": 5708,
 "ఉపయోగి": 5709,
 "logr": 5710,
 "उपमहाद्वीप": 5711,
 "इंडिया": 5712,
 "ఉపఖండ": 5713,
 "lec": 5714,
 "आन्दोलन": 5715,
 "आधा": 5716,
 "ఉత్తరాన": 5717,
 "ఉండటం": 5718,
 "kilómetros": 5719,
 "आक": 5720,
 "ఉంటుంది": 5721,
 "kann": 5722,
 "ఈస్ట్": 5723,
 "अमेरिका": 5724,
 "ఈశాన్య": 5725,
 "izquierda": 5726,
 "अधिकार": 5727,
 "ఇండో": 5728,
 "itectura": 5729,
 "अलावा": 5730,
 "isis": 5731,
 "होना": 5732,
 "ఇంగ్లీషు": 5733,
 "industria": 5734,
 "हॉकी": 5735,
 "ఇదే": 5736,
 "ico": 5737,
 "हास": 5738,
 "ఇటీ": 5739,
 "icación": 5740,
 "हाल": 5741,
 "ఇక్క": 5742,
 "ianza": 5743,
 "हायक": 5744,
 "ialmente": 5745,
 "हरा": 5746,
 "ఆహారం": 5747,
 "historiadores": 5748,
 "ఆధారపడిన": 5749,
 "himno": 5750,
 "स्थिति": 5751,
 "ఆక్రమిం": 5752,
 "hambruna": 5753,
 "स्कृतिक": 5754,
 "అయినా": 5755,
 "hockey": 5756,
 "सोवियत": 5757,
 "అతిపెద్ద": 5758,
 "hay": 5759,
 "सूची": 5760,
 "అంతర్జాతీయ": 5761,
 "gana": 5762,
 "అన్ని": 5763,
 "greso": 5764,
 "सिंह": 5765,
 "formó": 5766,
 "सिंधु": 5767,
 "అక్షరాస్యత": 5768,
 "formas": 5769,
 "सामरिक": 5770,
 "7లో": 5771,
 "existen": 5772,
 "सांस्कृतिक": 5773,
 "europeas": 5774,
 "समाप्त": 5775,
 "6న": 5776,
 "establec": 5777,
 "सदस्यों": 5778,
 "26న": 5779,
 "सदस्य": 5780,
 "199": 5781,
 "संबं": 5782,
 "están": 5783,
 "संबंधों": 5784,
 "హ్వాల్": 5785,
 "estión": 5786,
 "सहायक": 5787,
 "హ్రాన్": 5788,
 "सभ्य": 5789,
 "హ్మపు": 5790,
 "especialmente": 5791,
 "सभ्यता": 5792,
 "హ్మపుత్ర": 5793,
 "eron": 5794,
 "सदी": 5795,
 "హ్మదీ": 5796,
 "హ్మదీయులు": 5797,
 "षणा": 5798,
 "హ్నాలు": 5799,
 "श्मीर": 5800,
 "హొలీ": 5801,
 "endémicas": 5802,
 "शिक्षा": 5803,
 "హైద": 5804,
 "empres": 5805,
 "హైదరా": 5806,
 "शहरी": 5807,
 "హైదరాబాద్": 5808,
 "ejércit": 5809,
 "హైకోర్టులు": 5810,
 "विकसित": 5811,
 "హేష్": 5812,
 "egos": 5813,
 "विशेष": 5814,
 "హెబి": 5815,
 "హెబియ": 5816,
 "educación": 5817,
 "హెబియస్": 5818,
 "económica": 5819,
 "वास्त": 5820,
 "హిమాలయాలు": 5821,
 "eció": 5822,
 "హిందూస్తాన్": 5823,
 "वादी": 5824,
 "హిందూస్తా": 5825,
 "equ": 5826,
 "హిందూస్తానీ": 5827,
 "హింసా": 5828,
 "dicos": 5829,
 "वर्ण": 5830,
 "హింసాయుత": 5831,
 "హిందు": 5832,
 "divas": 5833,
 "वर्ग": 5834,
 "హిందువు": 5835,
 "लोकप्रि": 5836,
 "హిందువులైన": 5837,
 "desiguald": 5838,
 "लोकप्रिय": 5839,
 "హిందువులైనప్పటికీ": 5840,
 "desigualdad": 5841,
 "लोग": 5842,
 "హిస్తా": 5843,
 "decán": 5844,
 "लीवि": 5845,
 "హిస్తాయి": 5846,
 "deb": 5847,
 "హిళ": 5848,
 "लंबे": 5849,
 "హిళల": 5850,
 "días": 5851,
 "लड़ा": 5852,
 "హిరం": 5853,
 "día": 5854,
 "హిరంగంగా": 5855,
 "donde": 5856,
 "హిత్యం": 5857,
 "cuales": 5858,
 "लगा": 5859,
 "హాసా": 5860,
 "cristian": 5861,
 "హాసాల": 5862,
 "र्यटन": 5863,
 "హాసాలపై": 5864,
 "crisis": 5865,
 "राज्यसभा": 5866,
 "హాలు": 5867,
 "controlar": 5868,
 "राजवंश": 5869,
 "హాయీ": 5870,
 "continental": 5871,
 "रही": 5872,
 "హాయీలు": 5873,
 "convert": 5874,
 "रपे": 5875,
 "హాయిం": 5876,
 "హాయించి": 5877,
 "contra": 5878,
 "హాయ": 5879,
 "consejo": 5880,
 "रपेक्ष": 5881,
 "హాయకా": 5882,
 "congreso": 5883,
 "హాయకారిగా": 5884,
 "comunicación": 5885,
 "హాకీ": 5886,
 "cooperación": 5887,
 "यहाँ": 5888,
 "హాకీలో": 5889,
 "cita": 5890,
 "मौर्य": 5891,
 "హంగా": 5892,
 "celeb": 5893,
 "मोहन": 5894,
 "హస్త": 5895,
 "హల్": 5896,
 "cer": 5897,
 "मैदानी": 5898,
 "హర్గ": 5899,
 "मुस्लिम": 5900,
 "హర్గర్": 5901,
 "casi": 5902,
 "माध्य": 5903,
 "హక్కు": 5904,
 "can": 5905,
 "माध्यम": 5906,
 "హక్కులకు": 5907,
 "मंत्रि": 5908,
 "హక": 5909,
 "budistas": 5910,
 "मंत्रिम": 5911,
 "స్వేచ్ఛా": 5912,
 "bosques": 5913,
 "मंत्रिमण्ड": 5914,
 "స్వేచ్ఛాయుత": 5915,
 "bengalí": 5916,
 "मंत्रिमण्डल": 5917,
 "స్వీకారం": 5918,
 "bios": 5919,
 "भाषाएं": 5920,
 "స్వీక": 5921,
 "भाग": 5922,
 "స్వీకరించింది": 5923,
 "aument": 5924,
 "बौद्ध": 5925,
 "స్వాతంత్ర్యా": 5926,
 "बढ़ती": 5927,
 "స్వాతంత్ర్యానికి": 5928,
 "astr": 5929,
 "बढ़कर": 5930,
 "స్వాములు": 5931,
 "बद": 5932,
 "స్వాధీ": 5933,
 "స్వాధీనం": 5934,
 "asiát": 5935,
 "స్వతంత్రం": 5936,
 "बज": 5937,
 "స్వర్ణ": 5938,
 "arquitectura": 5939,
 "बजट": 5940,
 "స్వరూపం": 5941,
 "ario": 5942,
 "फ्रांस": 5943,
 "స్లేచ": 5944,
 "प्रदा": 5945,
 "స్లేచర్": 5946,
 "प्रदान": 5947,
 "స్లామ్": 5948,
 "animales": 5949,
 "प्रणा": 5950,
 "స్రిద్ధి": 5951,
 "andamán": 5952,
 "प्रणाली": 5953,
 "స్థూలా": 5954,
 "andi": 5955,
 "पूरा": 5956,
 "స్థూలాదాయంలో": 5957,
 "पाया": 5958,
 "స్థిరమైన": 5959,
 "amiento": 5960,
 "पान": 5961,
 "స్థితి": 5962,
 "స్థాయి": 5963,
 "परीक्ष": 5964,
 "స్థాయిలో": 5965,
 "alim": 5966,
 "परीक्षण": 5967,
 "స్థాపక": 5968,
 "परंपराग": 5969,
 "స్థానే": 5970,
 "alianza": 5971,
 "परंपरागत": 5972,
 "స్థానిక": 5973,
 "agricultores": 5974,
 "पंजा": 5975,
 "స్థానాలు": 5976,
 "aún": 5977,
 "पंजाब": 5978,
 "స్థాన": 5979,
 "út": 5980,
 "पर्यटन": 5981,
 "స్థానమైన": 5982,
 "útbol": 5983,
 "नेक": 5984,
 "స్తృతంగా": 5985,
 "úm": 5986,
 "नीय": 5987,
 "స్తుంది": 5988,
 "úmed": 5989,
 "స్తుంద": 5990,
 "úmedo": 5991,
 "निवा": 5992,
 "స్తుందని": 5993,
 "órica": 5994,
 "స్తున్నారు": 5995,
 "óleo": 5996,
 "निरपेक्ष": 5997,
 "స్తున్నాయి": 5998,
 "índi": 5999,
 "స్తున్నది": 6000,
 "índice": 6001,
 "స్తున్న": 6002,
 "íst": 6003,
 "नाग": 6004,
 "స్తీర్ణం": 6005,
 "స్తీర్ణంతో": 6006,
 "ímic": 6007,
 "देव": 6008,
 "స్తాంబు": 6009,
 "ímicos": 6010,
 "స్తాంబుల్": 6011,
 "ífer": 6012,
 "స్తామ": 6013,
 "íferos": 6014,
 "స్తామని": 6015,
 "íc": 6016,
 "देखा": 6017,
 "స్తాన్తో": 6018,
 "ícul": 6019,
 "देख": 6020,
 "స్తవులు": 6021,
 "ículas": 6022,
 "స్తరిం": 6023,
 "ét": 6024,
 "दिरा": 6025,
 "స్తరించిన": 6026,
 "त्रिक": 6027,
 "సౌకర్యవం": 6028,
 "సౌకర్యవంతంగా": 6029,
 "élu": 6030,
 "तुलना": 6031,
 "సౌకర్యము": 6032,
 "élugu": 6033,
 "సైనిక": 6034,
 "ática": 6035,
 "तीन": 6036,
 "సైనా": 6037,
 "ábigo": 6038,
 "तिहास": 6039,
 "సైతం": 6040,
 "ánd": 6041,
 "సేవ": 6042,
 "ándose": 6043,
 "तांत्रिक": 6044,
 "సేతర": 6045,
 "xvi": 6046,
 "సెస్": 6047,
 "तम": 6048,
 "సెర్టి": 6049,
 "xim": 6050,
 "సెర్టియో": 6051,
 "ximadamente": 6052,
 "डालर": 6053,
 "సెర్టియోరా": 6054,
 "westmin": 6055,
 "टेलीवि": 6056,
 "సెర్టియోరారి": 6057,
 "westminst": 6058,
 "సూచన": 6059,
 "westminster": 6060,
 "जैसे": 6061,
 "సూచనలు": 6062,
 "violencia": 6063,
 "जीवन": 6064,
 "సుల్తా": 6065,
 "vestre": 6066,
 "जिनमें": 6067,
 "సుల్తానులు": 6068,
 "vación": 6069,
 "जिन्हें": 6070,
 "సుమారు": 6071,
 "जनवरी": 6072,
 "సుప్రీం": 6073,
 "uso": 6074,
 "जरा": 6075,
 "సుదీ": 6076,
 "uri": 6077,
 "సుదీర్ఘ": 6078,
 "unda": 6079,
 "जमा": 6080,
 "సుకోవ": 6081,
 "unidos": 6082,
 "चला": 6083,
 "సుకోవడం": 6084,
 "unido": 6085,
 "సుకోవడంతో": 6086,
 "unales": 6087,
 "घोषणा": 6088,
 "సిక్కులు": 6089,
 "umbres": 6090,
 "गमन": 6091,
 "సింధూనదికి": 6092,
 "uebas": 6093,
 "कृषि": 6094,
 "సింధులోయ": 6095,
 "ucción": 6096,
 "किसी": 6097,
 "సింధుా": 6098,
 "uer": 6099,
 "किए": 6100,
 "సింధుాలోయ": 6101,
 "uerdo": 6102,
 "कार्यपालिका": 6103,
 "సిన": 6104,
 "udi": 6105,
 "कार्यकाल": 6106,
 "సిద్ధిం": 6107,
 "करते": 6108,
 "సిద్ధించింది": 6109,
 "uación": 6110,
 "कश्मीर": 6111,
 "సిద్ధం": 6112,
 "tribunales": 6113,
 "ऊँची": 6114,
 "సారవం": 6115,
 "tradicional": 6116,
 "उपयोग": 6117,
 "సారవంత": 6118,
 "tróleo": 6119,
 "उनके": 6120,
 "సారవంతమైన": 6121,
 "tigre": 6122,
 "उत्तरी": 6123,
 "సామ్రాజ్యా": 6124,
 "tierras": 6125,
 "उसे": 6126,
 "సామ్రాజ్యాలు": 6127,
 "thi": 6128,
 "उन्हें": 6129,
 "సామ్రాజ్య": 6130,
 "textos": 6131,
 "उच्च": 6132,
 "సాధించగా": 6133,
 "ternacion": 6134,
 "इसमें": 6135,
 "సాధించగ": 6136,
 "ternacional": 6137,
 "इसका": 6138,
 "సాధించగలి": 6139,
 "télugu": 6140,
 "इंदिरा": 6141,
 "సాధించగలిగినది": 6142,
 "tivamente": 6143,
 "इस्ला": 6144,
 "సాధించింది": 6145,
 "text": 6146,
 "సాధించి": 6147,
 "textiles": 6148,
 "इतिहास": 6149,
 "సాధించిపె": 6150,
 "tent": 6151,
 "సాధించిపెట్టా": 6152,
 "आया": 6153,
 "సాధించిపెట్టారు": 6154,
 "suprema": 6155,
 "సాధించా": 6156,
 "sud": 6157,
 "आय": 6158,
 "సాధించాము": 6159,
 "आप": 6160,
 "సాంప్రదాయికమైన": 6161,
 "strucción": 6162,
 "సాంప్రదాయ": 6163,
 "sober": 6164,
 "సాంఘి": 6165,
 "आज": 6166,
 "సాంఘిక": 6167,
 "situación": 6168,
 "आगमन": 6169,
 "సాహిత్యం": 6170,
 "siendo": 6171,
 "अमरीकी": 6172,
 "సాలు": 6173,
 "segunda": 6174,
 "अपना": 6175,
 "సాలాలు": 6176,
 "seis": 6177,
 "अनेक": 6178,
 "సార్క్": 6179,
 "sold": 6180,
 "monsoon": 6181,
 "సారిగా": 6182,
 "soldados": 6183,
 "होने": 6184,
 "సాయం": 6185,
 "sil": 6186,
 "हिस्सा": 6187,
 "సాఫ్ట్‌వే": 6188,
 "silvestre": 6189,
 "हिन्दु": 6190,
 "సాఫ్ట్‌వేర్": 6191,
 "sal": 6192,
 "సాని": 6193,
 "हिन्द": 6194,
 "సానియా": 6195,
 "ríos": 6196,
 "हित्य": 6197,
 "సాధా": 6198,
 "rot": 6199,
 "हरू": 6200,
 "సాధారణంగా": 6201,
 "हत्या": 6202,
 "సాక": 6203,
 "rico": 6204,
 "स्थापि": 6205,
 "సాకర్‌": 6206,
 "respec": 6207,
 "स्थापित": 6208,
 "సహస్రాబ్దిలో": 6209,
 "respectivamente": 6210,
 "स्थानीय": 6211,
 "సర్వీసును": 6212,
 "result": 6213,
 "सेवाओं": 6214,
 "సరిహద్దులు": 6215,
 "सूचना": 6216,
 "సరిహద్దులలో": 6217,
 "representando": 6218,
 "सीमा": 6219,
 "సరిహద్దులను": 6220,
 "religioso": 6221,
 "सिने": 6222,
 "సరిహద్దున": 6223,
 "religión": 6224,
 "सिनेमा": 6225,
 "సరిస్తూ": 6226,
 "reino": 6227,
 "साम्राज्यों": 6228,
 "సముద్ర": 6229,
 "rebeli": 6230,
 "साहित्य": 6231,
 "సముద్రతీ": 6232,
 "rebelión": 6233,
 "सारी": 6234,
 "సముద్రతీర": 6235,
 "rey": 6236,
 "सागर": 6237,
 "సముద్రతీరము": 6238,
 "సముచి": 6239,
 "rept": 6240,
 "साक्षर": 6241,
 "సముచిత": 6242,
 "reptiles": 6243,
 "साक्षरता": 6244,
 "సమాఖ్యలు": 6245,
 "reforma": 6246,
 "सरकारों": 6247,
 "సమాజం": 6248,
 "reelegido": 6249,
 "सतपु": 6250,
 "సమాజ": 6251,
 "reded": 6252,
 "सतपुड़ा": 6253,
 "సమాజము": 6254,
 "rededor": 6255,
 "सकते": 6256,
 "సమష్టి": 6257,
 "reconoc": 6258,
 "सकता": 6259,
 "సమశీ": 6260,
 "संघर्ष": 6261,
 "సమశీతో": 6262,
 "rse": 6263,
 "सहि": 6264,
 "సమశీతోష్ణ": 6265,
 "rim": 6266,
 "సమయంలో": 6267,
 "rimon": 6268,
 "सरे": 6269,
 "సభ్యులను": 6270,
 "rimonio": 6271,
 "సభ్యురాలు": 6272,
 "rado": 6273,
 "समृ": 6274,
 "సంస్కృతిలో": 6275,
 "समृद्ध": 6276,
 "సంస్కృతులతో": 6277,
 "queños": 6278,
 "समू": 6279,
 "సంస్కృతీ": 6280,
 "químicos": 6281,
 "समूह": 6282,
 "సంస్కృతం": 6283,
 "puestos": 6284,
 "समान": 6285,
 "సంస్కరణలు": 6286,
 "producción": 6287,
 "సంస్కరణలతో": 6288,
 "proximadamente": 6289,
 "सभी": 6290,
 "సంవత్సరాల": 6291,
 "principios": 6292,
 "सक्रि": 6293,
 "సంవత్సరా": 6294,
 "primeros": 6295,
 "सक्रिय": 6296,
 "సంవత్సరాలలో": 6297,
 "presenta": 6298,
 "षित": 6299,
 "సంవత్సా": 6300,
 "pruebas": 6301,
 "षण": 6302,
 "సంవత్సారాల": 6303,
 "prome": 6304,
 "సంబంధించిన": 6305,
 "promedio": 6306,
 "సంబంధ": 6307,
 "prades": 6308,
 "श्रीलं": 6309,
 "సంప్రదాయా": 6310,
 "pradesh": 6311,
 "श्रीलंका": 6312,
 "సంప్రదాయాలను": 6313,
 "pobreza": 6314,
 "शैली": 6315,
 "సంఘర్షణ": 6316,
 "pose": 6317,
 "शुरु": 6318,
 "సంఘర్షణలను": 6319,
 "సంఘము": 6320,
 "pesin": 6321,
 "शुरुआ": 6322,
 "సంగీతంలో": 6323,
 "pesinos": 6324,
 "సంగీతము": 6325,
 "perman": 6326,
 "शाली": 6327,
 "సంఖ్యలో": 6328,
 "शाल": 6329,
 "సంకీర్ణా": 6330,
 "petróleo": 6331,
 "शामिल": 6332,
 "సంకీర్ణాలే": 6333,
 "pequeños": 6334,
 "शस्त्र": 6335,
 "సంకీర్ణాలేకాగా": 6336,
 "partes": 6337,
 "సంకీర్ణం": 6338,
 "pandyas": 6339,
 "वैदि": 6340,
 "సంకీర్ణ": 6341,
 "paz": 6342,
 "वैदिक": 6343,
 "సంద": 6344,
 "pel": 6345,
 "वेश": 6346,
 "సందర్శిం": 6347,
 "películas": 6348,
 "సందర్శించే": 6349,
 "pat": 6350,
 "वृद्धि": 6351,
 "సంగమ": 6352,
 "विकासशील": 6353,
 "సంఖ్యా": 6354,
 "pan": 6355,
 "विशाल": 6356,
 "సంఖ్యాక": 6357,
 "oriental": 6358,
 "विरो": 6359,
 "సంక్రాం": 6360,
 "विरोध": 6361,
 "సంక్రాంతి": 6362,
 "ora": 6363,
 "विमान": 6364,
 "సహాయకారిగా": 6365,
 "onom": 6366,
 "विद्रो": 6367,
 "సవా": 6368,
 "विद्रोह": 6369,
 "సవాళ్లను": 6370,
 "onomía": 6371,
 "विज्ञा": 6372,
 "సల్వా": 6373,
 "विज्ञान": 6374,
 "సల్వార్": 6375,
 "onal": 6376,
 "वास्तविक": 6377,
 "సల": 6378,
 "ombay": 6379,
 "वर्णन": 6380,
 "సలహా": 6381,
 "olf": 6382,
 "वर्षा": 6383,
 "సర్వ": 6384,
 "olfo": 6385,
 "लोकसभा": 6386,
 "సర్వస": 6387,
 "olas": 6388,
 "लोकतांत्रिक": 6389,
 "సర్వసత్తా": 6390,
 "oficialmente": 6391,
 "लगाता": 6392,
 "సర్వసత్తాక": 6393,
 "occidentales": 6394,
 "लगातार": 6395,
 "సరా": 6396,
 "ocan": 6397,
 "र्मण": 6398,
 "సర": 6399,
 "obras": 6400,
 "रुषों": 6401,
 "సరమై": 6402,
 "otra": 6403,
 "रित": 6404,
 "సరమైతే": 6405,
 "nueva": 6406,
 "సభా": 6407,
 "nombre": 6408,
 "राजनीति": 6409,
 "సత్య": 6410,
 "niveles": 6411,
 "राजभाषा": 6412,
 "సత్యజి": 6413,
 "nación": 6414,
 "राजधा": 6415,
 "సత్యజిత్": 6416,
 "moderna": 6417,
 "राजधानी": 6418,
 "సగా": 6419,
 "mitad": 6420,
 "राजा": 6421,
 "ష్టంకాగా": 6422,
 "millón": 6423,
 "ష్టమైన": 6424,
 "miembro": 6425,
 "राई": 6426,
 "ష్కుల": 6427,
 "mercado": 6428,
 "షేధం": 6429,
 "meridi": 6430,
 "रत्न": 6431,
 "షన్": 6432,
 "meridional": 6433,
 "रण": 6434,
 "షకాహార": 6435,
 "medio": 6436,
 "శ్వామి": 6437,
 "media": 6438,
 "శ్వామిత్ర": 6439,
 "matrimonio": 6440,
 "रखा": 6441,
 "శ్వనా": 6442,
 "marathi": 6443,
 "यस": 6444,
 "శ్వనాథ": 6445,
 "marcada": 6446,
 "శ్వనాథన్": 6447,
 "mantiene": 6448,
 "यपालिका": 6449,
 "శ్వత": 6450,
 "manip": 6451,
 "यद्य": 6452,
 "శ్లోకా": 6453,
 "manipuri": 6454,
 "यद्यपि": 6455,
 "శ్లోకాలతో": 6456,
 "malay": 6457,
 "म्भिक": 6458,
 "శ్రీశై": 6459,
 "malayal": 6460,
 "मोदी": 6461,
 "శ్రీశైల": 6462,
 "malayalam": 6463,
 "मूल्य": 6464,
 "శ్రీశైలస్య": 6465,
 "mam": 6466,
 "मूल": 6467,
 "శ్రీలం": 6468,
 "mamíferos": 6469,
 "मालदी": 6470,
 "శ్రీలంక": 6471,
 "madamente": 6472,
 "मालदीव": 6473,
 "శ్రీరా": 6474,
 "logrado": 6475,
 "मानव": 6476,
 "శ్రీరామన": 6477,
 "llegó": 6478,
 "मनमोहन": 6479,
 "శ్రీరామనవ": 6480,
 "leyes": 6481,
 "मही": 6482,
 "శ్రీరామనవమి": 6483,
 "lengua": 6484,
 "శ్రామి": 6485,
 "lord": 6486,
 "मस्वरूप": 6487,
 "శ్రామిక": 6488,
 "ll": 6489,
 "मले": 6490,
 "శ్రయాలు": 6491,
 "lleras": 6492,
 "శ్రద్ధ": 6493,
 "lad": 6494,
 "भारती": 6495,
 "శ్రద్ధలతో": 6496,
 "ladés": 6497,
 "भारतीयों": 6498,
 "శోకు": 6499,
 "kannada": 6500,
 "भाषी": 6501,
 "శోకుడు": 6502,
 "juegos": 6503,
 "भागी": 6504,
 "శైలీ": 6505,
 "jeron": 6506,
 "भागीदारी": 6507,
 "శేషం": 6508,
 "बैठ": 6509,
 "శీతల": 6510,
 "jainismo": 6511,
 "बैठक": 6512,
 "శిష్ట": 6513,
 "je": 6514,
 "बूत": 6515,
 "శిలా": 6516,
 "శిలాగృ": 6517,
 "ita": 6518,
 "बहुमूल्य": 6519,
 "శిలాగృహాలు": 6520,
 "बनाया": 6521,
 "శిక": 6522,
 "istórica": 6523,
 "बदल": 6524,
 "శాశ్వత": 6525,
 "isit": 6526,
 "శాల్యం": 6527,
 "बढ़ने": 6528,
 "శాల్యంలో": 6529,
 "iría": 6530,
 "बंगा": 6531,
 "శాతం": 6532,
 "శాకాహార": 6533,
 "ionado": 6534,
 "बडी": 6535,
 "శంలోని": 6536,
 "फैली": 6537,
 "శలో": 6538,
 "informe": 6539,
 "प्रारम्भिक": 6540,
 "శక్తు": 6541,
 "influencia": 6542,
 "प्राचीनतम": 6543,
 "శక్తులు": 6544,
 "internacional": 6545,
 "प्रभावशाली": 6546,
 "శక్తి": 6547,
 "intent": 6548,
 "प्रचलित": 6549,
 "శక్తిగా": 6550,
 "प्रसार": 6551,
 "శకుం": 6552,
 "inic": 6553,
 "శకుంతల": 6554,
 "प्रशासन": 6555,
 "వ‌స్థ‌": 6556,
 "impuestos": 6557,
 "प्रदेशों": 6558,
 "వ్వబడిన": 6559,
 "illones": 6560,
 "प्रत्ये": 6561,
 "వ్య‌వ‌స్థ‌": 6562,
 "iii": 6563,
 "प्रत्येक": 6564,
 "వ్యాపారం": 6565,
 "पैमा": 6566,
 "వ్యాపార": 6567,
 "ierto": 6568,
 "వ్యాసము": 6569,
 "idades": 6570,
 "पेक्षा": 6571,
 "వ్యవస్థలోని": 6572,
 "వ్యవస్థల": 6573,
 "icieron": 6574,
 "पूरे": 6575,
 "వ్యవస్థగా": 6576,
 "ix": 6577,
 "पुरुषों": 6578,
 "వ్యవసాయం": 6579,
 "पार्टियों": 6580,
 "వ్యయం": 6581,
 "ie": 6582,
 "पाँच": 6583,
 "వ్యయంతో": 6584,
 "వైవిధ్యమైనది": 6585,
 "iamente": 6586,
 "पाल": 6587,
 "వైవిధ్యమైన": 6588,
 "historia": 6589,
 "వైవిధ్యమైనవి": 6590,
 "hambrunas": 6591,
 "पहाड़ी": 6592,
 "వైవిధ్యం": 6593,
 "hacer": 6594,
 "पहली": 6595,
 "వైశాల్యంలో": 6596,
 "húmedo": 6597,
 "परिणा": 6598,
 "వైపో": 6599,
 "hoy": 6600,
 "परिणामस्वरूप": 6601,
 "వైపోతున్న": 6602,
 "hora": 6603,
 "पनि": 6604,
 "వైపోతున్నప్పటికీ": 6605,
 "histórica": 6606,
 "వైపు": 6607,
 "hicieron": 6608,
 "पड़ा": 6609,
 "వైపులా": 6610,
 "gradualmente": 6611,
 "पठा": 6612,
 "వైనది": 6613,
 "gobernantes": 6614,
 "पठार": 6615,
 "వైన": 6616,
 "ganado": 6617,
 "न्होंने": 6618,
 "వేదాలు": 6619,
 "gri": 6620,
 "వేదాలలో": 6621,
 "न्यायपालिका": 6622,
 "వేర": 6623,
 "golfo": 6624,
 "नेहरू": 6625,
 "వేరతా": 6626,
 "fuert": 6627,
 "नदियों": 6628,
 "వేరతాయ": 6629,
 "fuerte": 6630,
 "नव": 6631,
 "వేరతాయని": 6632,
 "frente": 6633,
 "వెల్ల": 6634,
 "finalmente": 6635,
 "नए": 6636,
 "వెల్లడిం": 6637,
 "finales": 6638,
 "వెల్లడించింది": 6639,
 "fiestas": 6640,
 "धर्मों": 6641,
 "వెలు": 6642,
 "ferentes": 6643,
 "द्रीय": 6644,
 "వెలుప": 6645,
 "familias": 6646,
 "दोलन": 6647,
 "వెలుపలి": 6648,
 "fabe": 6649,
 "दार": 6650,
 "వెబ్సై": 6651,
 "వెబ్సైట్లు": 6652,
 "fabet": 6653,
 "వూపిం": 6654,
 "दर्श": 6655,
 "వూపింది": 6656,
 "fútbol": 6657,
 "వుంటుంది": 6658,
 "extremos": 6659,
 "त्पत्ति": 6660,
 "వున్నా": 6661,
 "extremadamente": 6662,
 "వుని": 6663,
 "expandi": 6664,
 "వీంద్ర": 6665,
 "expandirse": 6666,
 "त्थान": 6667,
 "వీంద్రనా": 6668,
 "estilos": 6669,
 "వీంద్రనాథ్": 6670,
 "estilo": 6671,
 "तीसरी": 6672,
 "విలువైన": 6673,
 "eran": 6674,
 "तरिक": 6675,
 "విలువ": 6676,
 "entes": 6677,
 "तब": 6678,
 "విలువలను": 6679,
 "ठित": 6680,
 "వింప": 6681,
 "వింపబ": 6682,
 "empleo": 6683,
 "टना": 6684,
 "వింపబడి": 6685,
 "embocan": 6686,
 "వించిన": 6687,
 "ellos": 6688,
 "टक": 6689,
 "వించినవే": 6690,
 "ella": 6691,
 "వించింది": 6692,
 "efectos": 6693,
 "जैन": 6694,
 "విస్తృతంగా": 6695,
 "económico": 6696,
 "जीत": 6697,
 "విస్తున్నది": 6698,
 "económicas": 6699,
 "जिसने": 6700,
 "విస్తీర్ణంతో": 6701,
 "economías": 6702,
 "जिसकी": 6703,
 "విస్తరించిన": 6704,
 "diversos": 6705,
 "जित": 6706,
 "విశ్వామిత్ర": 6707,
 "dismo": 6708,
 "విశ్వనాథన్": 6709,
 "directamente": 6710,
 "जाने": 6711,
 "విశేషం": 6712,
 "dilleras": 6713,
 "छोड़कर": 6714,
 "విశిష్ట": 6715,
 "diferentes": 6716,
 "छह": 6717,
 "వివా": 6718,
 "desierto": 6719,
 "चुकी": 6720,
 "వివాదం": 6721,
 "desembocan": 6722,
 "चाई": 6723,
 "వివరాలు": 6724,
 "derrot": 6725,
 "चली": 6726,
 "విల్లా": 6727,
 "घोषित": 6728,
 "విల్లాయి": 6729,
 "deportes": 6730,
 "घाटी": 6731,
 "విర్భ": 6732,
 "deporte": 6733,
 "गैर": 6734,
 "విర్భవించింది": 6735,
 "democrática": 6736,
 "गुट": 6737,
 "విమాన": 6738,
 "democrac": 6739,
 "విమా": 6740,
 "democracia": 6741,
 "गस्त": 6742,
 "విమానా": 6743,
 "defensa": 6744,
 "खंड": 6745,
 "విమానాశ్రయాలు": 6746,
 "debido": 6747,
 "విభ": 6748,
 "dest": 6749,
 "खर": 6750,
 "విభజి": 6751,
 "విభజితమై": 6752,
 "dav": 6753,
 "क्षेप": 6754,
 "విఫ": 6755,
 "davis": 6756,
 "విఫల": 6757,
 "cualquier": 6758,
 "क्टूबर": 6759,
 "వినాయక": 6760,
 "creó": 6761,
 "केंद्रीय": 6762,
 "విధించిన": 6763,
 "costumbres": 6764,
 "कामका": 6765,
 "విధి": 6766,
 "costas": 6767,
 "कामकाज": 6768,
 "విధా": 6769,
 "corte": 6770,
 "कारी": 6771,
 "విధానాలతో": 6772,
 "cordilleras": 6773,
 "విధం": 6774,
 "convirtieron": 6775,
 "విధంగా": 6776,
 "contiene": 6777,
 "करवा": 6778,
 "విద్య": 6779,
 "consideran": 6780,
 "విద్యను": 6781,
 "conocidos": 6782,
 "करती": 6783,
 "విదే": 6784,
 "condujo": 6785,
 "कप": 6786,
 "విదేశీ": 6787,
 "concentración": 6788,
 "एव": 6789,
 "వితంలో": 6790,
 "construcción": 6791,
 "విడి": 6792,
 "const": 6793,
 "ऊँचाई": 6794,
 "విడిపోయింది": 6795,
 "ऊपर": 6796,
 "విడ": 6797,
 "compu": 6798,
 "उनकी": 6799,
 "విజ్ఞా": 6800,
 "उनका": 6801,
 "విజ్ఞాన": 6802,
 "comple": 6803,
 "उभरा": 6804,
 "వారిస్తారు": 6805,
 "ईद": 6806,
 "వారిగా": 6807,
 "comerci": 6808,
 "इस्लाम": 6809,
 "వారసత్వాన్ని": 6810,
 "इसे": 6811,
 "వారసత్వానికి": 6812,
 "comenzaron": 6813,
 "आधार": 6814,
 "వారసత్వం": 6815,
 "común": 6816,
 "आकर्मण": 6817,
 "వారసత్వంగా": 6818,
 "colon": 6819,
 "आंदोलन": 6820,
 "వాదన": 6821,
 "आंतरिक": 6822,
 "వాణిజ్యపరంగా": 6823,
 "clásicas": 6824,
 "आते": 6825,
 "వాసాలు": 6826,
 "clases": 6827,
 "आगे": 6828,
 "వార్ల": 6829,
 "ciudadanos": 6830,
 "अवशेष": 6831,
 "వార్లలో": 6832,
 "cholas": 6833,
 "अवधि": 6834,
 "వారు": 6835,
 "cha": 6836,
 "अन्ततः": 6837,
 "వారం": 6838,
 "अहिं": 6839,
 "వారంటో": 6840,
 "ceso": 6841,
 "వాటిలో": 6842,
 "cerca": 6843,
 "अपेक्षा": 6844,
 "వాటి": 6845,
 "campesinos": 6846,
 "వాటిల్లిం": 6847,
 "cambio": 6848,
 "अति": 6849,
 "వాటిల్లింది": 6850,
 "cia": 6851,
 "अगस्त": 6852,
 "వహించే": 6853,
 "अक्टूबर": 6854,
 "వహించి": 6855,
 "budismo": 6856,
 "ह्मपु": 6857,
 "వలస": 6858,
 "británicos": 6859,
 "ह्मपुत्र": 6860,
 "వర్తిత్వం": 6861,
 "bosque": 6862,
 "होली": 6863,
 "వర్గాలు": 6864,
 "basándose": 6865,
 "हूदी": 6866,
 "వర్గాలలోను": 6867,
 "bangladés": 6868,
 "हिन्दुस्तान": 6869,
 "వచ్చినవారి": 6870,
 "bombay": 6871,
 "हिस्सों": 6872,
 "వచ్చినది": 6873,
 "billones": 6874,
 "हार्द": 6875,
 "వంటలు": 6876,
 "aves": 6877,
 "हार्दपूर्ण": 6878,
 "వంటలకు": 6879,
 "astronomía": 6880,
 "हरला": 6881,
 "వంశంలోని": 6882,
 "हरलाल": 6883,
 "వహిస్తాయి": 6884,
 "assam": 6885,
 "हनन": 6886,
 "వహించింది": 6887,
 "armadas": 6888,
 "हस्ता": 6889,
 "వస్తుందని": 6890,
 "arábigo": 6891,
 "हस्ताक्षर": 6892,
 "వళి": 6893,
 "antiguas": 6894,
 "हस्त": 6895,
 "వలె": 6896,
 "ampliamente": 6897,
 "हस्तक्षेप": 6898,
 "వలెనే": 6899,
 "alimentos": 6900,
 "हवे": 6901,
 "వలి": 6902,
 "algunos": 6903,
 "हवेली": 6904,
 "వర్షా": 6905,
 "algunas": 6906,
 "हरों": 6907,
 "వర్షాలు": 6908,
 "alu": 6909,
 "हत्व": 6910,
 "వర్షం": 6911,
 "हत्वपूर्ण": 6912,
 "వర్ధి": 6913,
 "हती": 6914,
 "వర్ధిల్లి": 6915,
 "alto": 6916,
 "स्वरु": 6917,
 "వర్ధిల్లిన": 6918,
 "alta": 6919,
 "వర్ణిం": 6920,
 "alrededor": 6921,
 "स्वरुप": 6922,
 "వర్ణించ": 6923,
 "ali": 6924,
 "వర్ణించబడింది": 6925,
 "स्वत": 6926,
 "వర్గీ": 6927,
 "alfabet": 6928,
 "स्वतन्त्र": 6929,
 "వర్గీక": 6930,
 "स्वतन्त्रता": 6931,
 "వర్గీకరణ": 6932,
 "agricultura": 6933,
 "स्रोत": 6934,
 "వర్గీకరణలో": 6935,
 "agua": 6936,
 "स्थाई": 6937,
 "వర్గం": 6938,
 "adqu": 6939,
 "स्थल": 6940,
 "వరు": 6941,
 "स्तेमाल": 6942,
 "వరుసగా": 6943,
 "ador": 6944,
 "सौहार्दपूर्ण": 6945,
 "వరీ": 6946,
 "सोसि": 6947,
 "వర": 6948,
 "actualmente": 6949,
 "सोसिए": 6950,
 "వరకూ": 6951,
 "actual": 6952,
 "सोसिएश": 6953,
 "వన్య": 6954,
 "सोसिएशन": 6955,
 "వన్యప్రా": 6956,
 "acuerdo": 6957,
 "सैनिक": 6958,
 "వన్యప్రాణు": 6959,
 "acceso": 6960,
 "सेल्सि": 6961,
 "వన్యప్రాణుల": 6962,
 "aproximadamente": 6963,
 "सेल्सियस": 6964,
 "వన్నీ": 6965,
 "aire": 6966,
 "सेमी": 6967,
 "వనాలు": 6968,
 "ahora": 6969,
 "सिन्धु": 6970,
 "వద్ద": 6971,
 "üíst": 6972,
 "सिख": 6973,
 "వత్‌": 6974,
 "üísticas": 6975,
 "सामने": 6976,
 "వడం": 6977,
 "último": 6978,
 "सामना": 6979,
 "వజ్రా": 6980,
 "ñoso": 6981,
 "सावादी": 6982,
 "వజ్రాలు": 6983,
 "ñan": 6984,
 "सायन": 6985,
 "వచ్చని": 6986,
 "ñanzas": 6987,
 "साझे": 6988,
 "ళ్ళపాటు": 6989,
 "índico": 6990,
 "साझेदारी": 6991,
 "ళులు": 6992,
 "ínci": 6993,
 "सहित": 6994,
 "ళుక్యు": 6995,
 "íncipes": 6996,
 "सरकारी": 6997,
 "ళుక్యులు": 6998,
 "íne": 6999,
 "समझौ": 7000,
 "ళికలు": 7001,
 "ínea": 7002,
 "समझौते": 7003,
 "ళాఖా": 7004,
 "ígen": 7005,
 "सदीय": 7006,
 "ళాఖాతం": 7007,
 "सदन": 7008,
 "ళవింపబడి": 7009,
 "ética": 7010,
 "सकल": 7011,
 "ళనా": 7012,
 "संसार": 7013,
 "ళనాడు": 7014,
 "ésp": 7015,
 "संसदीय": 7016,
 "ళనాడుకు": 7017,
 "ésped": 7018,
 "संबो": 7019,
 "ల్‌కాతా": 7020,
 "érica": 7021,
 "संबोधि": 7022,
 "ల్లోనూ": 7023,
 "édicos": 7024,
 "संबोधित": 7025,
 "ల్లోని": 7026,
 "éano": 7027,
 "संबर": 7028,
 "ల్లెల్లోని": 7029,
 "ár": 7030,
 "संचा": 7031,
 "ల్లవులు": 7032,
 "árbol": 7033,
 "संचालित": 7034,
 "ల్లలుగా": 7035,
 "áct": 7036,
 "संग्रा": 7037,
 "ల్పోతూ": 7038,
 "ácticas": 7039,
 "संग्राम": 7040,
 "ల్పుతూ": 7041,
 "zado": 7042,
 "संगठ": 7043,
 "ల్పించే": 7044,
 "xviii": 7045,
 "संगठन": 7046,
 "ల్దీవులు": 7047,
 "xix": 7048,
 "संग": 7049,
 "లోక్‌సభలో": 7050,
 "védicos": 7051,
 "संगम": 7052,
 "లోపం": 7053,
 "véas": 7054,
 "संक्षि": 7055,
 "లోచన": 7056,
 "véase": 7057,
 "संक्षिप्त": 7058,
 "లేని": 7059,
 "vietn": 7060,
 "सशस्त्र": 7061,
 "లేనివి": 7062,
 "vietnam": 7063,
 "सवी": 7064,
 "లేట్": 7065,
 "victorias": 7066,
 "లెక్కలు": 7067,
 "vicep": 7068,
 "सम्रा": 7069,
 "లెక్కనుం": 7070,
 "vicepresident": 7071,
 "सम्राट": 7072,
 "లెక్కనుంది": 7073,
 "vicepresidente": 7074,
 "सम्मि": 7075,
 "లెంద": 7076,
 "vientos": 7077,
 "सम्मिलित": 7078,
 "లెందరో": 7079,
 "vedas": 7080,
 "सम्पू": 7081,
 "లెజి": 7082,
 "vasta": 7083,
 "सम्पूर्ण": 7084,
 "లెజిస్లేచర్": 7085,
 "varon": 7086,
 "सपास": 7087,
 "లుగుతా": 7088,
 "valle": 7089,
 "सन्द": 7090,
 "లుగుతాయి": 7091,
 "voc": 7092,
 "सतर": 7093,
 "లుపు": 7094,
 "सजी": 7095,
 "లుపుతూ": 7096,
 "vamente": 7097,
 "सक्ष": 7098,
 "లున్నాయి": 7099,
 "utrición": 7100,
 "सक्षम": 7101,
 "లీనో": 7102,
 "utilizando": 7103,
 "सकर": 7104,
 "లీనోద్య": 7105,
 "utilizado": 7106,
 "षाण": 7107,
 "లీనోద్యమం": 7108,
 "utiliza": 7109,
 "లీనోద్యమంలో": 7110,
 "utas": 7111,
 "श्रेणी": 7112,
 "లింపి": 7113,
 "uscar": 7114,
 "श्रित": 7115,
 "లింపిక్‌": 7116,
 "urismo": 7117,
 "श्यक": 7118,
 "లిసింది": 7119,
 "urisdic": 7120,
 "शुरुआत": 7121,
 "లియాం": 7122,
 "urisdicción": 7123,
 "शियन": 7124,
 "లియాండ": 7125,
 "urbanización": 7126,
 "शिखर": 7127,
 "లియాండర్": 7128,
 "urbanas": 7129,
 "शिकार": 7130,
 "లియం": 7131,
 "urs": 7132,
 "शासनिक": 7133,
 "లిన": 7134,
 "ursiones": 7135,
 "शहरीकरण": 7136,
 "లిథి": 7137,
 "urg": 7138,
 "शक्तियों": 7139,
 "లిథిక్": 7140,
 "urgimiento": 7141,
 "शहरों": 7142,
 "లితంగా": 7143,
 "undaciones": 7144,
 "शहर": 7145,
 "లిచిన": 7146,
 "unitar": 7147,
 "शब्द": 7148,
 "లిచింది": 7149,
 "unitario": 7150,
 "वीन": 7151,
 "లిచారు": 7152,
 "unciones": 7153,
 "विभाजित": 7154,
 "లికే": 7155,
 "unci": 7156,
 "विभाजन": 7157,
 "లికేన": 7158,
 "विंध्या": 7159,
 "లికేననీ": 7160,
 "ulg": 7161,
 "विंध्याचल": 7162,
 "లిక": 7163,
 "ulgó": 7164,
 "विधि": 7165,
 "లాహోర్‌ల": 7166,
 "udió": 7167,
 "विधा": 7168,
 "లాహోర్": 7169,
 "ucido": 7170,
 "विधायि": 7171,
 "లాంటి": 7172,
 "uci": 7173,
 "विधायिका": 7174,
 "లాల్లో": 7175,
 "ucifol": 7176,
 "वित": 7177,
 "లాభ": 7178,
 "ucifolio": 7179,
 "विज": 7180,
 "లాభదా": 7181,
 "ubicó": 7182,
 "विजयन": 7183,
 "లాభదాయక": 7184,
 "ubicado": 7185,
 "विजयनगर": 7186,
 "లాభదాయకమేన": 7187,
 "ubre": 7188,
 "वाहरलाल": 7189,
 "లాభదాయకమేననీ": 7190,
 "uos": 7191,
 "वालों": 7192,
 "లవుతుంది": 7193,
 "ujo": 7194,
 "वाले": 7195,
 "లక్షణాలు": 7196,
 "ugu": 7197,
 "वाला": 7198,
 "లక్షణాన్ని": 7199,
 "uencia": 7200,
 "वार्षि": 7201,
 "లక్షల": 7202,
 "udio": 7203,
 "वार्षिक": 7204,
 "లంపు": 7205,
 "tware": 7206,
 "वाम": 7207,
 "లంపుతో": 7208,
 "transform": 7209,
 "वामपं": 7210,
 "లంకె": 7211,
 "transformado": 7212,
 "वामपंथी": 7213,
 "లంకెలు": 7214,
 "transpor": 7215,
 "वस": 7216,
 "లంకా": 7217,
 "transporte": 7218,
 "वश्यक": 7219,
 "లంకార": 7220,
 "tranjer": 7221,
 "वर्णि": 7222,
 "లస్యం": 7223,
 "tranjero": 7224,
 "वर्णित": 7225,
 "లర్లు": 7226,
 "tradición": 7227,
 "वर्गी": 7228,
 "లయింది": 7229,
 "trigo": 7230,
 "वर्गीकरण": 7231,
 "లయా": 7232,
 "tras": 7233,
 "वधान": 7234,
 "లయాళం": 7235,
 "todav": 7236,
 "वत": 7237,
 "లభ్య": 7238,
 "todavía": 7239,
 "లభ్యమైన": 7240,
 "tip": 7241,
 "वज": 7242,
 "లబై": 7243,
 "tipos": 7244,
 "वजह": 7245,
 "లబైరెండు": 7246,
 "thil": 7247,
 "वक्त": 7248,
 "లబైరెండుకోట్లకు": 7249,
 "thili": 7250,
 "लौटना": 7251,
 "లబె": 7252,
 "teriz": 7253,
 "लेकर": 7254,
 "లబెట్టు": 7255,
 "teriza": 7256,
 "लुक्यों": 7257,
 "లబెట్టుకు": 7258,
 "terior": 7259,
 "लिस": 7260,
 "లబెట్టుకున్నాయి": 7261,
 "लिक": 7262,
 "లపరి": 7263,
 "tenía": 7264,
 "లపరిమి": 7265,
 "tenido": 7266,
 "लड़ाकू": 7267,
 "లపరిమితి": 7268,
 "tencia": 7269,
 "लयों": 7270,
 "లపరిమితికి": 7271,
 "tempr": 7272,
 "र्षित": 7273,
 "లన్నీ": 7274,
 "temprana": 7275,
 "र्मियों": 7276,
 "లనుండి": 7277,
 "temas": 7278,
 "र्मदा": 7279,
 "లజీ": 7280,
 "telugu": 7281,
 "र्भर": 7282,
 "లఘు": 7283,
 "telev": 7284,
 "र्नाटक": 7285,
 "లకాలం": 7286,
 "televisión": 7287,
 "र्तिक": 7288,
 "ర‌వాణా": 7289,
 "tegr": 7290,
 "र्तिकर्ता": 7291,
 "ర‌తంలో": 7292,
 "tegral": 7293,
 "र्गत": 7294,
 "ర్సీలు": 7295,
 "tanques": 7296,
 "रेंद्र": 7297,
 "ర్సింగ్": 7298,
 "tañoso": 7299,
 "रेशियन": 7300,
 "ర్షియ": 7301,
 "turismo": 7302,
 "रेलू": 7303,
 "ర్షియనులు": 7304,
 "tubre": 7305,
 "रेगी": 7306,
 "ర్షణను": 7307,
 "tt": 7308,
 "रेखा": 7309,
 "ర్శకు": 7310,
 "tton": 7311,
 "रूपरेखा": 7312,
 "ర్శకుడైన": 7313,
 "tend": 7314,
 "रूपए": 7315,
 "ర్వాహక": 7316,
 "tendencia": 7317,
 "रीबी": 7318,
 "ర్వపు": 7319,
 "tales": 7320,
 "रिकों": 7321,
 "ర్లమెం": 7322,
 "tades": 7323,
 "राष्ट्रप": 7324,
 "ర్లమెంట": 7325,
 "símb": 7326,
 "राष्ट्रपति": 7327,
 "ర్లమెంటరీ": 7328,
 "símbolo": 7329,
 "राजाओं": 7330,
 "ర్యము": 7331,
 "suroeste": 7332,
 "राष्ट्रों": 7333,
 "ర్యన్": 7334,
 "surg": 7335,
 "राशि": 7336,
 "ర్మేషన్": 7337,
 "रंपरिक": 7338,
 "ర్మిస్తున్న": 7339,
 "superiores": 7340,
 "रंतु": 7341,
 "ర్పాటు": 7342,
 "sudeste": 7343,
 "रंजन": 7344,
 "ర్పస్": 7345,
 "suel": 7346,
 "रसायन": 7347,
 "ర్థాలు": 7348,
 "suelo": 7349,
 "रल": 7350,
 "ర్థన": 7351,
 "stric": 7352,
 "रम": 7353,
 "ర్థనలలో": 7354,
 "stricciones": 7355,
 "रचना": 7356,
 "ర్తదేశపు": 7357,
 "sputas": 7358,
 "ర్ణాట": 7359,
 "soberan": 7360,
 "रखंड": 7361,
 "ర్ణాటక": 7362,
 "soberanía": 7363,
 "रख": 7364,
 "ర్జెన్సీ": 7365,
 "sindhi": 7366,
 "रखने": 7367,
 "ర్జాలు": 7368,
 "siguientes": 7369,
 "यूरेशियन": 7370,
 "ర్చుతో": 7371,
 "siguiente": 7372,
 "यूपी": 7373,
 "ర్చుగ": 7374,
 "siguen": 7375,
 "यूपीए": 7376,
 "ర్చుగల్": 7377,
 "significat": 7378,
 "युद्धों": 7379,
 "ర్గము": 7380,
 "याब": 7381,
 "ర్క్‌టికా": 7382,
 "sij": 7383,
 "यानों": 7384,
 "ర్క్‌టికాలో": 7385,
 "sijismo": 7386,
 "यहूदी": 7387,
 "ర్కొంటున్నారు": 7388,
 "serie": 7389,
 "यहां": 7390,
 "ర్కొంటున్నది": 7391,
 "selec": 7392,
 "यशक्ति": 7393,
 "ర్కెట్": 7394,
 "selección": 7395,
 "यल": 7396,
 "రోధా": 7397,
 "seguid": 7398,
 "यद्वीप": 7399,
 "రోధాల": 7400,
 "seguidores": 7401,
 "यदा": 7402,
 "రోడ్ల": 7403,
 "secuencia": 7404,
 "म्बई": 7405,
 "రోక్ష": 7406,
 "seco": 7407,
 "मौसम": 7408,
 "రొట్టె": 7409,
 "salud": 7410,
 "मोर्चा": 7411,
 "రొట్టెల": 7412,
 "sacudió": 7413,
 "मैदानों": 7414,
 "రైల్వేశాఖకు": 7415,
 "sof": 7416,
 "मूल्यों": 7417,
 "రైళ్ల": 7418,
 "software": 7419,
 "मुम्बई": 7420,
 "రేబి": 7421,
 "sf": 7422,
 "मुद्रा": 7423,
 "రేబియా": 7424,
 "sant": 7425,
 "मील": 7426,
 "రెండోది": 7427,
 "santali": 7428,
 "मिश्रित": 7429,
 "రెండువైపులా": 7430,
 "sa": 7431,
 "माला": 7432,
 "రెన్నో": 7433,
 "río": 7434,
 "मार्च": 7435,
 "రూపాంతర": 7436,
 "rocos": 7437,
 "मामले": 7438,
 "రూపాంతరమే": 7439,
 "rocosas": 7440,
 "मान्य": 7441,
 "రూపాంత": 7442,
 "roz": 7443,
 "मान्यता": 7444,
 "రూపాంతరం": 7445,
 "ritos": 7446,
 "मानी": 7447,
 "రూపంలో": 7448,
 "rique": 7449,
 "मात्र": 7450,
 "రూపొం": 7451,
 "riqueza": 7452,
 "माता": 7453,
 "రూపొందింది": 7454,
 "rios": 7455,
 "माण": 7456,
 "రుష్కుల": 7457,
 "rientos": 7458,
 "महीने": 7459,
 "రుదుగా": 7460,
 "riar": 7461,
 "महासागर": 7462,
 "రుచు": 7463,
 "riarcal": 7464,
 "महाद्वी": 7465,
 "రుచులు": 7466,
 "resultado": 7467,
 "महाद्वीपों": 7468,
 "రుగు": 7469,
 "respet": 7470,
 "महात्मा": 7471,
 "రుగుబా": 7472,
 "respetados": 7473,
 "मध्यका": 7474,
 "రుగుబాటు": 7475,
 "reservas": 7476,
 "मध्यकालीन": 7477,
 "రుగా": 7478,
 "resurgimiento": 7479,
 "मंचों": 7480,
 "రీతులు": 7481,
 "resos": 7482,
 "महत्वपूर्ण": 7483,
 "రింది": 7484,
 "representan": 7485,
 "मनो": 7486,
 "రించే": 7487,
 "representa": 7488,
 "मनोरंजन": 7489,
 "రిస్తారు": 7490,
 "reno": 7491,
 "मनु": 7492,
 "రిశ్రామిక": 7493,
 "రిత": 7494,
 "renamiento": 7495,
 "मना": 7496,
 "రిట్లు": 7497,
 "religiosos": 7498,
 "मनाए": 7499,
 "రిట్ల": 7500,
 "relativamente": 7501,
 "मज": 7502,
 "రిట్లలో": 7503,
 "redujo": 7504,
 "मजबूत": 7505,
 "రిగే": 7506,
 "reducido": 7507,
 "मग": 7508,
 "రికా": 7509,
 "reconocimiento": 7510,
 "मगध": 7511,
 "రికంగా": 7512,
 "recta": 7513,
 "भियानों": 7514,
 "రికం": 7515,
 "realizar": 7516,
 "भारतवर्ष": 7517,
 "రాష్ట్రాలుగా": 7518,
 "realizan": 7519,
 "भाबर": 7520,
 "రాష్ట్రపతిచే": 7521,
 "reves": 7522,
 "भरी": 7523,
 "రాష్ట్రపతులు": 7524,
 "restricciones": 7525,
 "भर": 7526,
 "రాలుగా": 7527,
 "rep": 7528,
 "भक्ति": 7529,
 "రాజ్యాంగ": 7530,
 "repet": 7531,
 "ब्रह्मपुत्र": 7532,
 "రాజ్యాలను": 7533,
 "repetid": 7534,
 "बोली": 7535,
 "రాజకీయాలు": 7536,
 "repetidamente": 7537,
 "बोला": 7538,
 "రాజకీయా": 7539,
 "rsf": 7540,
 "రాజకీయాల్లో": 7541,
 "rp": 7542,
 "बैंक": 7543,
 "రాజయం": 7544,
 "rer": 7545,
 "बेटे": 7546,
 "రాజధా": 7547,
 "reros": 7548,
 "बाल": 7549,
 "రాజధానులు": 7550,
 "rada": 7551,
 "बाढ़": 7552,
 "రాసిన": 7553,
 "बहुप": 7554,
 "రామా": 7555,
 "raciones": 7556,
 "बहुपक्षी": 7557,
 "రామాయ": 7558,
 "quedivas": 7559,
 "बहुपक्षीय": 7560,
 "రామాయణం": 7561,
 "público": 7562,
 "बनाए": 7563,
 "రాన్ని": 7564,
 "pueblos": 7565,
 "बंगाल": 7566,
 "రాతి": 7567,
 "pueblo": 7568,
 "बंधी": 7569,
 "రాతియు": 7570,
 "puest": 7571,
 "రాతియుగ": 7572,
 "puesto": 7573,
 "बंधीय": 7574,
 "రాతియుగపు": 7575,
 "propor": 7576,
 "రాణిం": 7577,
 "proporc": 7578,
 "बहती": 7579,
 "రాణించ": 7580,
 "proporcionado": 7581,
 "बल": 7582,
 "రాణించలేదు": 7583,
 "propi": 7584,
 "बनीं": 7585,
 "రాటం": 7586,
 "propiet": 7587,
 "फैला": 7588,
 "రాచీ": 7589,
 "propietarios": 7590,
 "రహదారులను": 7591,
 "promulgó": 7592,
 "फुट": 7593,
 "రలోనే": 7594,
 "proliferación": 7595,
 "फिल्म": 7596,
 "రతమ్యా": 7597,
 "prem": 7598,
 "फिर": 7599,
 "రతమ్యాలున్నాయి": 7600,
 "premio": 7601,
 "फायदा": 7602,
 "రచయితలెందరో": 7603,
 "príncipes": 7604,
 "फ़ेडे": 7605,
 "రకాలుగా": 7606,
 "prácticas": 7607,
 "फ़ेडेरल": 7608,
 "రకాలు": 7609,
 "prensa": 7610,
 "प्रावधान": 7611,
 "రంగాల్లో": 7612,
 "prend": 7613,
 "प्रायद्वीप": 7614,
 "రంగాల": 7615,
 "prendas": 7616,
 "प्राप्ति": 7617,
 "రంగానికి": 7618,
 "posteriormente": 7619,
 "प्रसारण": 7620,
 "రంగ": 7621,
 "posee": 7622,
 "प्रभावित": 7623,
 "రంగము": 7624,
 "portanc": 7625,
 "प्रचलन": 7626,
 "రవేరతాయని": 7627,
 "portancia": 7628,
 "प्रशासनिक": 7629,
 "రవీంద్రనాథ్": 7630,
 "político": 7631,
 "प्रमाण": 7632,
 "రవిస్తారు": 7633,
 "políticas": 7634,
 "प्रथ": 7635,
 "రమ్‌": 7636,
 "poblado": 7637,
 "प्रथम": 7638,
 "రమో": 7639,
 "poblada": 7640,
 "प्रगति": 7641,
 "రమోన్న": 7642,
 "potencia": 7643,
 "प्रका": 7644,
 "రమోన్నత": 7645,
 "plata": 7646,
 "प्रकाश": 7647,
 "రమేనని": 7648,
 "plano": 7649,
 "पैमाने": 7650,
 "రబ": 7651,
 "plan": 7652,
 "पैंतीस": 7653,
 "రబద్ధం": 7654,
 "planeta": 7655,
 "पेन": 7656,
 "రతు": 7657,
 "piensa": 7658,
 "पूर्तिकर्ता": 7659,
 "రతుడు": 7660,
 "personal": 7661,
 "पुराने": 7662,
 "రచింది": 7663,
 "permaneció": 7664,
 "पुराना": 7665,
 "రక్షరాస్యత": 7666,
 "periodistas": 7667,
 "पुलिस": 7668,
 "రకు": 7669,
 "perios": 7670,
 "पुन": 7671,
 "యోలిథిక్": 7672,
 "persa": 7673,
 "యోచన": 7674,
 "pendencia": 7675,
 "पार्टियां": 7676,
 "యోచనలో": 7677,
 "patriarcal": 7678,
 "पारसी": 7679,
 "యూదులు": 7680,
 "pasó": 7681,
 "पारंपरिक": 7682,
 "యునై": 7683,
 "parlamentario": 7684,
 "पात": 7685,
 "యునైటె": 7686,
 "parlamentaria": 7687,
 "యునైటెడ్": 7688,
 "paridad": 7689,
 "पहाड़ि": 7690,
 "యుద్ధా": 7691,
 "panda": 7692,
 "पहाड़ियाँ": 7693,
 "యుద్ధాలు": 7694,
 "palab": 7695,
 "पर्वतश्रेणी": 7696,
 "యుద్ధం": 7697,
 "palabra": 7698,
 "पर्वतमाला": 7699,
 "యుడైన": 7700,
 "pto": 7701,
 "परन्तु": 7702,
 "యుగం": 7703,
 "ppa": 7704,
 "पनियों": 7705,
 "యుక్త": 7706,
 "posi": 7707,
 "पहुँ": 7708,
 "యిస్తారు": 7709,
 "posib": 7710,
 "యావత్‌": 7711,
 "posible": 7712,
 "पसन्द": 7713,
 "యాదాయంలో": 7714,
 "otro": 7715,
 "परा": 7716,
 "యాత్రి": 7717,
 "originalmente": 7718,
 "యాత్రికులు": 7719,
 "origen": 7720,
 "परंतु": 7721,
 "యాత్ర": 7722,
 "oriss": 7723,
 "पमान": 7724,
 "యాత్రలతో": 7725,
 "orissa": 7726,
 "न्यायालयों": 7727,
 "యాణి": 7728,
 "ori": 7729,
 "न्यायाधि": 7730,
 "యాణికుల": 7731,
 "oriya": 7732,
 "न्यायाधिकार": 7733,
 "యము": 7734,
 "ondres": 7735,
 "न्नति": 7736,
 "యమున": 7737,
 "onk": 7738,
 "యన్మా": 7739,
 "onkan": 7740,
 "न्द्रीय": 7741,
 "యన్మార్": 7742,
 "onkani": 7743,
 "नेतृत्‍व": 7744,
 "యతి": 7745,
 "omento": 7746,
 "नेशिया": 7747,
 "యకుల": 7748,
 "océano": 7749,
 "नेपाल": 7750,
 "మౌఖి": 7751,
 "octubre": 7752,
 "नृत्य": 7753,
 "మౌఖిక": 7754,
 "oble": 7755,
 "नीति": 7756,
 "మౌఖికమైనది": 7757,
 "nueve": 7758,
 "निवास": 7759,
 "మొదలైనటు": 7760,
 "nuevamente": 7761,
 "निवार्य": 7762,
 "మొదలైనటువంటి": 7763,
 "normas": 7764,
 "निर्माता": 7765,
 "మొదలగువారు": 7766,
 "nombran": 7767,
 "निष्ठ": 7768,
 "మొదలగున": 7769,
 "novación": 7770,
 "निवेश": 7771,
 "మొదలగునవి": 7772,
 "nos": 7773,
 "निर्भर": 7774,
 "మొదటిసారిగా": 7775,
 "ninguna": 7776,
 "नियं": 7777,
 "మొదటిది": 7778,
 "nica": 7779,
 "మొగలులు": 7780,
 "निम्न": 7781,
 "మైనదే": 7782,
 "niños": 7783,
 "మైంది": 7784,
 "nutrición": 7785,
 "नागरिकों": 7786,
 "మైదా": 7787,
 "muest": 7788,
 "नागरिक": 7789,
 "మైదానం": 7790,
 "muestra": 7791,
 "नारे": 7792,
 "మైదానంతో": 7793,
 "montañoso": 7794,
 "नामों": 7795,
 "మైత్రి": 7796,
 "moned": 7797,
 "नाडु": 7798,
 "మేనకల": 7799,
 "moneda": 7800,
 "नवग": 7801,
 "మేళవింపబడి": 7802,
 "modernos": 7803,
 "नवगठित": 7804,
 "మేరోః": 7805,
 "mitología": 7806,
 "नएसजी": 7807,
 "మేరకు": 7808,
 "ministros": 7809,
 "नवीन": 7810,
 "మెహర్గర్": 7811,
 "minuyó": 7812,
 "नर्मदा": 7813,
 "మెరికా": 7814,
 "migración": 7815,
 "नरेंद्र": 7816,
 "మూలాలు": 7817,
 "mico": 7818,
 "नये": 7819,
 "మూల": 7820,
 "नया": 7821,
 "మూడే": 7822,
 "mike": 7823,
 "नपान": 7824,
 "మూడవ": 7825,
 "mercados": 7826,
 "नदी": 7827,
 "ముఖ్యతను": 7828,
 "menos": 7829,
 "नगर": 7830,
 "ముంబైలో": 7831,
 "menores": 7832,
 "नई": 7833,
 "ముంబా": 7834,
 "medida": 7835,
 "दौर": 7836,
 "ముంబాయి": 7837,
 "medic": 7838,
 "देखने": 7839,
 "ముందుగా": 7840,
 "medicina": 7841,
 "देखते": 7842,
 "ములో": 7843,
 "masivo": 7844,
 "देते": 7845,
 "ములకు": 7846,
 "masa": 7847,
 "देता": 7848,
 "మురు": 7849,
 "mantenimiento": 7850,
 "देखो": 7851,
 "ముత్యం": 7852,
 "mantenido": 7853,
 "दूसरे": 7854,
 "ముడ్చు": 7855,
 "mantener": 7856,
 "दिसंबर": 7857,
 "ముడ్చుకుం": 7858,
 "mano": 7859,
 "दिवाली": 7860,
 "ముడ్చుకుంది": 7861,
 "mancomunidad": 7862,
 "दिवस": 7863,
 "మీర్జాలు": 7864,
 "malnutrición": 7865,
 "दाद": 7866,
 "మీజ్": 7867,
 "maldivas": 7868,
 "दादरा": 7869,
 "మించి": 7870,
 "mai": 7871,
 "दशहरा": 7872,
 "మిస్తున్నాయి": 7873,
 "maithili": 7874,
 "दय": 7875,
 "మిన": 7876,
 "mah": 7877,
 "दमन": 7878,
 "మినహాయించి": 7879,
 "mahat": 7880,
 "थवा": 7881,
 "మిగి": 7882,
 "mahatma": 7883,
 "त्यादि": 7884,
 "మిగిలిన": 7885,
 "médicos": 7886,
 "त्कालीन": 7887,
 "మార్గాలే": 7888,
 "momento": 7889,
 "तेज़ी": 7890,
 "మార్గాలలో": 7891,
 "mando": 7892,
 "तीसरे": 7893,
 "మార్గాలను": 7894,
 "lytton": 7895,
 "तापमान": 7896,
 "మార్గంలో": 7897,
 "lucha": 7898,
 "तमिलनाडु": 7899,
 "మారుమూల": 7900,
 "loto": 7901,
 "तल": 7902,
 "మారుడు": 7903,
 "llega": 7904,
 "మానవుని": 7905,
 "lingüísticas": 7906,
 "तराई": 7907,
 "మాండ": 7908,
 "limita": 7909,
 "तत्कालीन": 7910,
 "మాండమ": 7911,
 "liber": 7912,
 "तटों": 7913,
 "మాండమస్": 7914,
 "libertades": 7915,
 "तट": 7916,
 "మాల్దీవులు": 7917,
 "legislativo": 7918,
 "ण्डिया": 7919,
 "మాలిక": 7920,
 "legisl": 7921,
 "ढाँचा": 7922,
 "మార్తె": 7923,
 "legislación": 7924,
 "डोनेशिया": 7925,
 "మార్గము": 7926,
 "levaron": 7927,
 "डीपी": 7928,
 "మార్కెట్": 7929,
 "leos": 7930,
 "डिग्री": 7931,
 "మారింది": 7932,
 "lema": 7933,
 "ठाया": 7934,
 "మాది": 7935,
 "lejan": 7936,
 "ठवीं": 7937,
 "మాదిరిగా": 7938,
 "lejanos": 7939,
 "टेलीविज़": 7940,
 "మాతృ": 7941,
 "larga": 7942,
 "टेलीविज़न": 7943,
 "మాణ": 7944,
 "lamada": 7945,
 "टेलीविजन": 7946,
 "మహాసముద్రం": 7947,
 "laquedivas": 7948,
 "टिबंधीय": 7949,
 "మహాభారతం": 7950,
 "laos": 7951,
 "మనమే": 7952,
 "línea": 7953,
 "झारखंड": 7954,
 "మనదేశంలో": 7955,
 "lá": 7956,
 "जैसी": 7957,
 "మధ్యవర్తిత్వం": 7958,
 "जीडीपी": 7959,
 "మధ్యల": 7960,
 "londres": 7961,
 "जिनके": 7962,
 "మధ్యకాలంలో": 7963,
 "llevaron": 7964,
 "जिसे": 7965,
 "మతిని": 7966,
 "llamada": 7967,
 "जिन्हे": 7968,
 "మతాలతో": 7969,
 "lig": 7970,
 "जारी": 7971,
 "మతాల": 7972,
 "liga": 7973,
 "जापान": 7974,
 "మతస్తులు": 7975,
 "lado": 7976,
 "जातीय": 7977,
 "మతములు": 7978,
 "lab": 7979,
 "మతములకు": 7980,
 "laboral": 7981,
 "ज़्यादा": 7982,
 "మంత్రివర్గం": 7983,
 "kashmiri": 7984,
 "जरायल": 7985,
 "మంత్రిత్వ": 7986,
 "konkani": 7987,
 "जरात": 7988,
 "మంత్రు": 7989,
 "jerce": 7990,
 "जंग": 7991,
 "మంత్రులచే": 7992,
 "jerarqu": 7993,
 "जंगलों": 7994,
 "మంత": 7995,
 "jerarquía": 7996,
 "जवाहरलाल": 7997,
 "మంతటా": 7998,
 "jefe": 7999,
 "छूट": 8000,
 "మంజూ": 8001,
 "jainistas": 8002,
 "चुनाव": 8003,
 "మంజూరు": 8004,
 "jó": 8005,
 "चालुक्यों": 8006,
 "మంచి": 8007,
 "चलाया": 8008,
 "మంగా": 8009,
 "jurisdicción": 8010,
 "चलने": 8011,
 "మహేష్": 8012,
 "jef": 8013,
 "चरम": 8014,
 "మహిళల": 8015,
 "घाट": 8016,
 "మసాలాలు": 8017,
 "jefat": 8018,
 "घरेलू": 8019,
 "మలవుతుంది": 8020,
 "घनिष्ठ": 8021,
 "మలయాళం": 8022,
 "ité": 8023,
 "ग्रह": 8024,
 "మర్జెన్సీ": 8025,
 "ista": 8026,
 "ग्रणी": 8027,
 "మరెన్నో": 8028,
 "isitivo": 8029,
 "गोल": 8030,
 "మయన్మార్": 8031,
 "islá": 8032,
 "మద్రా": 8033,
 "गुजरात": 8034,
 "మద్రాసు": 8035,
 "ipos": 8036,
 "ग़रीबी": 8037,
 "మతం": 8038,
 "intentó": 8039,
 "गतिशील": 8040,
 "మణ": 8041,
 "inicios": 8042,
 "गये": 8043,
 "మణదారు": 8044,
 "ingresos": 8045,
 "खासकर": 8046,
 "మణదారులు": 8047,
 "indoaria": 8048,
 "खानपान": 8049,
 "భౌతిక": 8050,
 "indirectamente": 8051,
 "क्षेत्रों": 8052,
 "భూప": 8053,
 "indígen": 8054,
 "क्षुण्ण": 8055,
 "భూపతి": 8056,
 "क्रिके": 8057,
 "భిన్నత్వా": 8058,
 "incursiones": 8059,
 "क्रिकेट": 8060,
 "భిన్నత్వాలు": 8061,
 "inundaciones": 8062,
 "क्रांति": 8063,
 "భింబె": 8064,
 "integral": 8065,
 "భింబెట్కా": 8066,
 "innovación": 8067,
 "क्रयशक्ति": 8068,
 "భాషలలోను": 8069,
 "inción": 8070,
 "क्रम": 8071,
 "భాషలతో": 8072,
 "inación": 8073,
 "భారతదేశమే": 8074,
 "क्योंकि": 8075,
 "భారతదేశము": 8076,
 "importancia": 8077,
 "कोपेन": 8078,
 "భారతంలో": 8079,
 "importaciones": 8080,
 "केन्द्रशासित": 8081,
 "భారత్‌లో": 8082,
 "imperios": 8083,
 "केंद्रशासित": 8084,
 "భారతీ": 8085,
 "imp": 8086,
 "केन्द्रीय": 8087,
 "భారతీయుడైన": 8088,
 "कुलीन": 8089,
 "భాగస్వాములు": 8090,
 "imo": 8091,
 "किनारे": 8092,
 "భాగమేనని": 8093,
 "कामयाब": 8094,
 "భావిస్తున్నది": 8095,
 "ima": 8096,
 "कांश": 8097,
 "భార‌తంలో": 8098,
 "igen": 8099,
 "कहला": 8100,
 "భార్తదేశపు": 8101,
 "iente": 8102,
 "భాజ": 8103,
 "idioma": 8104,
 "करोड": 8105,
 "భాజపా": 8106,
 "idea": 8107,
 "करवाने": 8108,
 "భరతవర్షం": 8109,
 "idas": 8110,
 "कंपनियों": 8111,
 "భరతనా": 8112,
 "icam": 8113,
 "कंक": 8114,
 "భరతనాట్యం": 8115,
 "icameral": 8116,
 "कंकड": 8117,
 "భక్తిశ్రద్ధలతో": 8118,
 "ipo": 8119,
 "कहीं": 8120,
 "భంగం": 8121,
 "ifica": 8122,
 "कला": 8123,
 "భరతుడు": 8124,
 "iendo": 8125,
 "कल": 8126,
 "భమైన": 8127,
 "iba": 8128,
 "బ్రెడ్": 8129,
 "hubo": 8130,
 "कर्मियों": 8131,
 "బ్రిటీష్": 8132,
 "historiador": 8133,
 "कर्नाटक": 8134,
 "బ్రిటీషు": 8135,
 "hinduistas": 8136,
 "करेगी": 8137,
 "బ్రాడ్‌గే": 8138,
 "hinduista": 8139,
 "कटिबंधीय": 8140,
 "బ్రాడ్‌గేజి": 8141,
 "himalaya": 8142,
 "బ్రహ్మపుత్ర": 8143,
 "hambrientos": 8144,
 "औसत": 8145,
 "బ్యాడ్మిం": 8146,
 "hablantes": 8147,
 "ऐसे": 8148,
 "బ్యాడ్మింట": 8149,
 "hablados": 8150,
 "ऐसी": 8151,
 "బ్యాడ్మింటన్‌": 8152,
 "hablada": 8153,
 "एशियाई": 8154,
 "బౌద్ధు": 8155,
 "gujarati": 8156,
 "एवम": 8157,
 "బౌద్ధులు": 8158,
 "guerreros": 8159,
 "एसोसिएशन": 8160,
 "బౌద్ధ": 8161,
 "gobiernos": 8162,
 "एनएसजी": 8163,
 "బెల్": 8164,
 "gobernante": 8165,
 "ऊर्जा": 8166,
 "బుల్స్": 8167,
 "generales": 8168,
 "उपग्रह": 8169,
 "బుని": 8170,
 "geográfica": 8171,
 "उत्पादन": 8172,
 "బునిస్తున్నారు": 8173,
 "gestión": 8174,
 "उष्ण": 8175,
 "బిళ్ళ": 8176,
 "gastronomía": 8177,
 "బిన్న": 8178,
 "floreció": 8179,
 "उल": 8180,
 "బిన్నత్వంలో": 8181,
 "flora": 8182,
 "उभरी": 8183,
 "బిజి": 8184,
 "fibios": 8185,
 "उन्होंने": 8186,
 "బిజినె": 8187,
 "fera": 8188,
 "उदय": 8189,
 "బిజినెస్": 8190,
 "feder": 8191,
 "उत्थान": 8192,
 "బాంబే": 8193,
 "federación": 8194,
 "उठाया": 8195,
 "బాగా": 8196,
 "factores": 8197,
 "ईसाई": 8198,
 "బహుమతి": 8199,
 "fauna": 8200,
 "ईस्ट": 8201,
 "బహుభాషా": 8202,
 "funciones": 8203,
 "इसने": 8204,
 "బడతాయి": 8205,
 "fre": 8206,
 "इंडोनेशिया": 8207,
 "బంగ్లాదేశ్‌లలో": 8208,
 "इस्तेमाल": 8209,
 "బంగ్లాదేశ్": 8210,
 "fest": 8211,
 "इलावा": 8212,
 "బంగాళాఖాతం": 8213,
 "festivos": 8214,
 "इत्यादि": 8215,
 "బండ్ల": 8216,
 "extinción": 8217,
 "इण्डिया": 8218,
 "బండ్లను": 8219,
 "expansión": 8220,
 "इजरायल": 8221,
 "బహిరంగంగా": 8222,
 "extranjero": 8223,
 "आयातक": 8224,
 "బహాయీలు": 8225,
 "exportaciones": 8226,
 "आपके": 8227,
 "బల్యం": 8228,
 "existe": 8229,
 "आधारित": 8230,
 "బడ్డ": 8231,
 "excl": 8232,
 "आकर्षित": 8233,
 "ఫ్రాన్స్": 8234,
 "excluyó": 8235,
 "आसपास": 8236,
 "ఫ్ఘాని": 8237,
 "exce": 8238,
 "आवश्यक": 8239,
 "ఫ్ఘానిస్తాన్": 8240,
 "excepto": 8241,
 "आम": 8242,
 "ఫుట్‌బా": 8243,
 "establecido": 8244,
 "आपूर्तिकर्ता": 8245,
 "ఫుట్‌బాల్‌": 8246,
 "estaba": 8247,
 "आने": 8248,
 "ఫిక్": 8249,
 "estudio": 8250,
 "आदर्श": 8251,
 "ఫలితంగా": 8252,
 "especias": 8253,
 "आठवीं": 8254,
 "ప్రిల్": 8255,
 "ese": 8256,
 "आकृ": 8257,
 "ప్రారంభించాలనే": 8258,
 "esc": 8259,
 "ప్రారంభించాలని": 8260,
 "आए": 8261,
 "ప్రారంభమైన": 8262,
 "equipos": 8263,
 "आई": 8264,
 "ప్రాయమైనది": 8265,
 "equipo": 8266,
 "अहिंसावादी": 8267,
 "ప్రాయపడు": 8268,
 "entrenamiento": 8269,
 "अवसा": 8270,
 "ప్రాయపడుతు": 8271,
 "enseñanzas": 8272,
 "ప్రాయపడుతున్నారు": 8273,
 "enso": 8274,
 "अमेरिकी": 8275,
 "ప్రాంతాలతో": 8276,
 "encontr": 8277,
 "अमरीका": 8278,
 "ప్రాంతాలకు": 8279,
 "encontró": 8280,
 "अन्तर्गत": 8281,
 "ప్రాసెస్": 8282,
 "enca": 8283,
 "अनुसूची": 8284,
 "ప్రార్థనలలో": 8285,
 "encabe": 8286,
 "अधिराज्य": 8287,
 "ప్రాముఖ్యతను": 8288,
 "encabezado": 8289,
 "अधिकांश": 8290,
 "ప్రాబల్యం": 8291,
 "empresas": 8292,
 "अंग्रेजों": 8293,
 "ప్రాదే": 8294,
 "empresa": 8295,
 "असैनिक": 8296,
 "ప్రాదేశిక": 8297,
 "empleos": 8298,
 "अशांति": 8299,
 "ప్రాజా": 8300,
 "emergió": 8301,
 "अभियानों": 8302,
 "ప్రాజాస్వామ్య": 8303,
 "emblema": 8304,
 "अनिवार्य": 8305,
 "ప్రాచు": 8306,
 "emira": 8307,
 "अथवा": 8308,
 "ప్రాచుర్యము": 8309,
 "emat": 8310,
 "अग्रणी": 8311,
 "ప్రయోజనా": 8312,
 "ematográfica": 8313,
 "अक्षुण्ण": 8314,
 "ప్రయోజనాలు": 8315,
 "elegidos": 8316,
 "stral": 8317,
 "ప్రయోజన": 8318,
 "eligen": 8319,
 "stralian": 8320,
 "ప్రయోజనక": 8321,
 "ejércitos": 8322,
 "australian": 8323,
 "ప్రయోజనకరమేనని": 8324,
 "ejército": 8325,
 "७वीं": 8326,
 "ప్రముఖమైనదే": 8327,
 "ejerce": 8328,
 "१७वीं": 8329,
 "ప్రముఖమైనది": 8330,
 "eid": 8331,
 "होमो": 8332,
 "ప్రభుత్వాలన్నీ": 8333,
 "drama": 8334,
 "होकर": 8335,
 "ప్రభుత్వంలో": 8336,
 "dogri": 8337,
 "हेब": 8338,
 "ప్రభుత్వంచే": 8339,
 "diversidad": 8340,
 "हिमाल": 8341,
 "ప్రభుత్వ": 8342,
 "distritos": 8343,
 "हिमालयी": 8344,
 "ప్రపంచంలోనే": 8345,
 "disminuyó": 8346,
 "हिन्दुओं": 8347,
 "ప్రపంచదేశాలలో": 8348,
 "dialectos": 8349,
 "हिला": 8350,
 "ప్రధానమంత్రిని": 8351,
 "disputas": 8352,
 "हिलाओं": 8353,
 "ప్రధానమంత్రికి": 8354,
 "directa": 8355,
 "हिनी": 8356,
 "ప్రదేశ్‌": 8357,
 "diarios": 8358,
 "हालां": 8359,
 "ప్రదేశే": 8360,
 "destaca": 8361,
 "हालांकि": 8362,
 "ప్రతిపాదనల్లో": 8363,
 "desiguales": 8364,
 "हार": 8365,
 "ప్రతిపక్షం": 8366,
 "descont": 8367,
 "हारना": 8368,
 "ప్రతిపక్ష": 8369,
 "descontento": 8370,
 "हाने": 8371,
 "ప్రతిపక్షమైంది": 8372,
 "derrotado": 8373,
 "हरग": 8374,
 "ప్రతిని": 8375,
 "derecha": 8376,
 "हरगढ़": 8377,
 "ప్రతినిధి": 8378,
 "deriva": 8379,
 "हर्ष": 8380,
 "ప్రతినిధిచే": 8381,
 "define": 8382,
 "हमान": 8383,
 "ప్రజలచే": 8384,
 "dependencia": 8385,
 "हम": 8386,
 "ప్రజలకు": 8387,
 "debajo": 8388,
 "हबोला": 8389,
 "ప్రజల": 8390,
 "doble": 8391,
 "हद्": 8392,
 "ప్రయాణికుల": 8393,
 "dat": 8394,
 "हद": 8395,
 "ప్రమాణ": 8396,
 "datan": 8397,
 "हते": 8398,
 "ప్రథ": 8399,
 "dado": 8400,
 "हड़": 8401,
 "ప్రథమ": 8402,
 "culturas": 8403,
 "हड़प्पा": 8404,
 "ప్రత్యే": 8405,
 "cultivos": 8406,
 "हटी": 8407,
 "ప్రత్యేక": 8408,
 "cuyas": 8409,
 "स्वशासित": 8410,
 "ప్రత్యేకమైన": 8411,
 "cuestión": 8412,
 "स्वर्णि": 8413,
 "ప్రత్య": 8414,
 "cuart": 8415,
 "स्वर्णिम": 8416,
 "ప్రత్యక్షం": 8417,
 "cuarta": 8418,
 "स्वयं": 8419,
 "ప్రత్యక్షంగా": 8420,
 "cristianos": 8421,
 "स्थितियों": 8422,
 "ప్రణా": 8423,
 "cristianismo": 8424,
 "स्थापक": 8425,
 "ప్రణాళికలు": 8426,
 "creciente": 8427,
 "स्थानों": 8428,
 "ప్రగ": 8429,
 "crearon": 8430,
 "स्त्रीय": 8431,
 "ప్రగతి": 8432,
 "costera": 8433,
 "स्तुतः": 8434,
 "ప్రగతిని": 8435,
 "convirtiendo": 8436,
 "स्तियों": 8437,
 "ప్రఖ్యా": 8438,
 "convertiría": 8439,
 "स्तित्व": 8440,
 "ప్రఖ్యాతి": 8441,
 "convertido": 8442,
 "स्तरों": 8443,
 "ప్పించుకోవ": 8444,
 "constant": 8445,
 "स्ट्रेलिया": 8446,
 "ప్పించుకోవడానికి": 8447,
 "constantemente": 8448,
 "स्ट्रेलियाई": 8449,
 "ప్పిలేట్": 8450,
 "condujeron": 8451,
 "सोने": 8452,
 "ప్తులకాలం": 8453,
 "concentra": 8454,
 "सेनाओं": 8455,
 "పౌర": 8456,
 "consecuencia": 8457,
 "सेपि": 8458,
 "పోషకాహార": 8459,
 "comunidades": 8460,
 "सेपियं": 8461,
 "పోలో": 8462,
 "comunes": 8463,
 "सेपियंस": 8464,
 "పోర్చుగల్": 8465,
 "compuesta": 8466,
 "सृजन": 8467,
 "పోరాటం": 8468,
 "completo": 8469,
 "सृजनशील": 8470,
 "పోటీ": 8471,
 "comerciantes": 8472,
 "सृजनशीलता": 8473,
 "పోటీలలో": 8474,
 "comité": 8475,
 "सूत्र": 8476,
 "పొందినది": 8477,
 "comidas": 8478,
 "सूत्रपात": 8479,
 "పొడి": 8480,
 "colonias": 8481,
 "सुल": 8482,
 "పొడిగిం": 8483,
 "colisión": 8484,
 "सुलझे": 8485,
 "పొడిగించుకోవ": 8486,
 "clase": 8487,
 "सुभा": 8488,
 "పొడిగించుకోవచ్చని": 8489,
 "clima": 8490,
 "सुभाष": 8491,
 "పేర్కొన్నాయి": 8492,
 "civilización": 8493,
 "सुधा": 8494,
 "పేర్కొన": 8495,
 "cinematográfica": 8496,
 "सुधारी": 8497,
 "పేర్కొనవచ్చు": 8498,
 "ciencia": 8499,
 "सुधारीकरण": 8500,
 "పేరుతో": 8501,
 "cheras": 8502,
 "सुदू": 8503,
 "పేస్": 8504,
 "chemira": 8505,
 "सुदूर": 8506,
 "పేర్కొంటున్నారు": 8507,
 "chalu": 8508,
 "सुख": 8509,
 "పేద": 8510,
 "सुखदेव": 8511,
 "పేదరికం": 8512,
 "chaluk": 8513,
 "सीन": 8514,
 "పెద్దగా": 8515,
 "सीधे": 8516,
 "పెట్రో": 8517,
 "celebran": 8518,
 "सितम्ब": 8519,
 "పెట్రోలియం": 8520,
 "celebraciones": 8521,
 "सितम्बर": 8522,
 "పూర్వపు": 8523,
 "casta": 8524,
 "सिहा": 8525,
 "పూర్వం": 8526,
 "carac": 8527,
 "सिन": 8528,
 "పూడి": 8529,
 "caracteriza": 8530,
 "सामान्य": 8531,
 "పురుషులు": 8532,
 "canales": 8533,
 "साहेब": 8534,
 "పురుషులకు": 8535,
 "canal": 8536,
 "सार्वा": 8537,
 "పురుషుల": 8538,
 "califica": 8539,
 "सार्वाधि": 8540,
 "పుట్టి": 8541,
 "calidad": 8542,
 "सार्वाधिक": 8543,
 "పుట్టిల్లు": 8544,
 "cachemira": 8545,
 "साम्प्र": 8546,
 "పుట్టా": 8547,
 "césped": 8548,
 "साम्प्रदा": 8549,
 "పుట్టాయి": 8550,
 "cuna": 8551,
 "साम्प्रदायि": 8552,
 "పీఠభూమితో": 8553,
 "cpi": 8554,
 "साम्प्रदायिक": 8555,
 "పీఠభూమికి": 8556,
 "censo": 8557,
 "सामु": 8558,
 "పీఠి": 8559,
 "cargo": 8560,
 "सामुद्रि": 8561,
 "పీఠిక": 8562,
 "canc": 8563,
 "सामुद्रिक": 8564,
 "పించింది": 8565,
 "canción": 8566,
 "सात": 8567,
 "పిస్తామని": 8568,
 "cad": 8569,
 "सातवाँ": 8570,
 "పిలిచారు": 8571,
 "caducifolio": 8572,
 "सहिष्णु": 8573,
 "పిన": 8574,
 "cab": 8575,
 "सहिष्णुता": 8576,
 "పిత": 8577,
 "सहज": 8578,
 "పాలించ": 8579,
 "caball": 8580,
 "सरदार": 8581,
 "పాలనలోకి": 8582,
 "समानता": 8583,
 "పాలకులు": 8584,
 "buda": 8585,
 "समग्र": 8586,
 "పాలకులనుండి": 8587,
 "británica": 8588,
 "संघठित": 8589,
 "పార్టీలతో": 8590,
 "biosfera": 8591,
 "संस्थापक": 8592,
 "పార్టీల": 8593,
 "basado": 8594,
 "संर": 8595,
 "పార్టీగా": 8596,
 "barrios": 8597,
 "संरक्षि": 8598,
 "పార్టీకి": 8599,
 "banco": 8600,
 "संरक्षित": 8601,
 "పాకిస్థాన్కు": 8602,
 "buscar": 8603,
 "संतो": 8604,
 "పాకిస్తాన్తో": 8605,
 "breves": 8606,
 "संतोष": 8607,
 "పాండ్యు": 8608,
 "bodo": 8609,
 "संकी": 8610,
 "పాండ్యులు": 8611,
 "bien": 8612,
 "संकीर्ण": 8613,
 "పాండి": 8614,
 "bicameral": 8615,
 "सवीं": 8616,
 "పాండిచ్చే": 8617,
 "band": 8618,
 "सर्जि": 8619,
 "పాండిచ్చేరి": 8620,
 "bandera": 8621,
 "सर्जित": 8622,
 "పావళి": 8623,
 "avanc": 8624,
 "सम्प्र": 8625,
 "పాలయింది": 8626,
 "avances": 8627,
 "सम्प्रभु": 8628,
 "పార్సీలు": 8629,
 "aumentó": 8630,
 "सम्प्रभुता": 8631,
 "పార్లమెంటరీ": 8632,
 "aumentado": 8633,
 "सम्प": 8634,
 "పారిశ్రామిక": 8635,
 "atraj": 8636,
 "सम्पदा": 8637,
 "పాధి": 8638,
 "सन्नति": 8639,
 "పాక్షి": 8640,
 "asiáticos": 8641,
 "सकें": 8642,
 "పాక్షిక": 8643,
 "asiático": 8644,
 "ष्टाचार": 8645,
 "పవిత్రం": 8646,
 "asientos": 8647,
 "ष्टता": 8648,
 "పవిత్రంగా": 8649,
 "artesanos": 8650,
 "षभ": 8651,
 "పవిత్ర": 8652,
 "artesan": 8653,
 "षभदेव": 8654,
 "పర్వదినాలు": 8655,
 "षकों": 8656,
 "పర్వతా": 8657,
 "arquías": 8658,
 "श्विक": 8659,
 "పర్వతాలతో": 8660,
 "श्रेणि": 8661,
 "పరీక్షలు": 8662,
 "armas": 8663,
 "श्रेणियों": 8664,
 "పరీక్షను": 8665,
 "arroz": 8666,
 "श्रीम": 8667,
 "పరిశ్రమ": 8668,
 "arec": 8669,
 "श्रीमद्भा": 8670,
 "పరిస్థితి": 8671,
 "श्रीमद्भाग": 8672,
 "పరిపాలించ": 8673,
 "aparec": 8674,
 "श्रीमद्भागवत": 8675,
 "పరిపాలన": 8676,
 "शोषण": 8677,
 "పరిధి": 8678,
 "antiguos": 8679,
 "शोक": 8680,
 "పరిధిలో": 8681,
 "antigua": 8682,
 "शैव": 8683,
 "పరిఢ": 8684,
 "anglo": 8685,
 "शेखर": 8686,
 "పరిఢవిల్లాయి": 8687,
 "anual": 8688,
 "शुरुआती": 8689,
 "పద్ధతిలో": 8690,
 "anfibios": 8691,
 "शुष्क": 8692,
 "పద్ధతులు": 8693,
 "anex": 8694,
 "शीत": 8695,
 "పద్ధతులున్నాయి": 8696,
 "शिक्षाओं": 8697,
 "పద్ధతులతో": 8698,
 "amplia": 8699,
 "शिष्टता": 8700,
 "పతకం": 8701,
 "ambos": 8702,
 "शिश": 8703,
 "పడుతుంది": 8704,
 "américa": 8705,
 "शिवा": 8706,
 "పట్టాలెక్కనుంది": 8707,
 "ambas": 8708,
 "शिवालिक": 8709,
 "పట్టాలు": 8710,
 "algún": 8711,
 "शिल्प": 8712,
 "పట్టణాలను": 8713,
 "alfabetización": 8714,
 "शियस": 8715,
 "పట్టణాల": 8716,
 "altos": 8717,
 "शिक": 8718,
 "పట్టణ": 8719,
 "agrícolas": 8720,
 "शासनकाल": 8721,
 "పకల్పం": 8722,
 "adquisitivo": 8723,
 "शासकों": 8724,
 "పంపిన": 8725,
 "administrado": 8726,
 "शासकी": 8727,
 "పండ్లు": 8728,
 "activa": 8729,
 "शासकीय": 8730,
 "పంచె": 8731,
 "aban": 8732,
 "शासक": 8733,
 "పంచు": 8734,
 "शाही": 8735,
 "పంచుకుం": 8736,
 "ṇar": 8737,
 "शास्त्रीय": 8738,
 "పంచుకుంటోం": 8739,
 "ṇarā": 8740,
 "शास्त्र": 8741,
 "పంచుకుంటోంది": 8742,
 "ṇarāj": 8743,
 "शस्त": 8744,
 "పంచా": 8745,
 "ṇarājya": 8746,
 "शकारी": 8747,
 "పంచాయతి": 8748,
 "οί": 8749,
 "शक": 8750,
 "పస్రిద్ధి": 8751,
 "νδ": 8752,
 "व्युत्पत्ति": 8753,
 "పవనాలు": 8754,
 "νδοί": 8755,
 "व्यापा": 8756,
 "పల్లెల్లోని": 8757,
 "ινδοί": 8758,
 "व्यापारिक": 8759,
 "పల్లవులు": 8760,
 "ːr": 8761,
 "व्यापर": 8762,
 "పర్షియనులు": 8763,
 "ːrʌ": 8764,
 "व्याप": 8765,
 "పరోక్ష": 8766,
 "ːrʌt": 8767,
 "व्यापक": 8768,
 "పరాజయం": 8769,
 "ːrʌt̪": 8770,
 "व्यक्ति": 8771,
 "పరమోన్నత": 8772,
 "ˈbʱɑ": 8773,
 "वैश्विक": 8774,
 "పరమైన": 8775,
 "ˈbʱɑːrʌt̪": 8776,
 "वेशिक": 8777,
 "పబడింది": 8778,
 "āt": 8779,
 "वेदों": 8780,
 "పది": 8781,
 "ātana": 8782,
 "वृहद्": 8783,
 "పదిశాతం": 8784,
 "üe": 8785,
 "वीरा": 8786,
 "పదా": 8787,
 "úes": 8788,
 "वीर": 8789,
 "పదార్థాలు": 8790,
 "ónom": 8791,
 "वीय": 8792,
 "పత్యం": 8793,
 "ónomas": 8794,
 "विश्वप": 8795,
 "పట్టు": 8796,
 "ónimo": 8797,
 "विश्वपट": 8798,
 "పట్టును": 8799,
 "ónica": 8800,
 "विश्वपटल": 8801,
 "పటం": 8802,
 "ómico": 8803,
 "विशेषता": 8804,
 "పటంలో": 8805,
 "óm": 8806,
 "विशेषतायें": 8807,
 "పచ్చ": 8808,
 "ómadas": 8809,
 "विशेषकर": 8810,
 "పచ్చజెం": 8811,
 "óg": 8812,
 "वियतनाम": 8813,
 "పచ్చజెండా": 8814,
 "ógica": 8815,
 "विभाग": 8816,
 "పక్షం": 8817,
 "ño": 8818,
 "विदेक": 8819,
 "న్‌ఫర్మేషన్": 8820,
 "íticos": 8821,
 "विसर्जित": 8822,
 "న్లుగా": 8823,
 "íticas": 8824,
 "विश्वं": 8825,
 "న్యాయస్థానమైన": 8826,
 "ísticos": 8827,
 "विशिष्टता": 8828,
 "న్యాయవ్యవస్థలో": 8829,
 "ísmo": 8830,
 "विवि": 8831,
 "న్యాయవ్యవస్థ": 8832,
 "íns": 8833,
 "विविध": 8834,
 "న్నిస్లో": 8835,
 "ínsul": 8836,
 "विविधता": 8837,
 "నోబెల్": 8838,
 "ínsula": 8839,
 "विलु": 8840,
 "నేసియా": 8841,
 "índ": 8842,
 "विलुप्त": 8843,
 "నేరుగా": 8844,
 "índu": 8845,
 "विरु": 8846,
 "నేత": 8847,
 "étnica": 8848,
 "विरुद्ध": 8849,
 "నెలకొని": 8850,
 "épt": 8851,
 "विना": 8852,
 "నెలకొ": 8853,
 "éptimo": 8854,
 "विनाशकारी": 8855,
 "నెలకొన్న": 8856,
 "époc": 8857,
 "विद्वे": 8858,
 "నెహ్వాల్": 8859,
 "época": 8860,
 "विद्वेष": 8861,
 "నెర్": 8862,
 "éis": 8863,
 "विघ": 8864,
 "నెరవేరతాయని": 8865,
 "éi": 8866,
 "विघटन": 8867,
 "నృత్య": 8868,
 "áticas": 8869,
 "विघटनकारी": 8870,
 "నూట": 8871,
 "ábit": 8872,
 "वास्तव": 8873,
 "నూటన": 8874,
 "ábitats": 8875,
 "वासों": 8876,
 "నూటనలబైరెండుకోట్లకు": 8877,
 "ást": 8878,
 "वालन": 8879,
 "నుము": 8880,
 "ásticas": 8881,
 "वाना": 8882,
 "నీతి": 8883,
 "ájar": 8884,
 "वानालै": 8885,
 "నిర్వహణలో": 8886,
 "ájaro": 8887,
 "वानालैण्ड": 8888,
 "నిర్మించే": 8889,
 "zoroastr": 8890,
 "वाजों": 8891,
 "నిర్మించేది": 8892,
 "zoroastrismo": 8893,
 "वर्तनों": 8894,
 "నిర్మించి": 8895,
 "zando": 8896,
 "वर्तन": 8897,
 "నిర్మించినం": 8898,
 "yal": 8899,
 "वंशज": 8900,
 "నిర్మించినందు": 8901,
 "yale": 8902,
 "वंशों": 8903,
 "నిర్మించినందువల్ల": 8904,
 "xiii": 8905,
 "वस्तुतः": 8906,
 "నియమించబడ్డ": 8907,
 "védico": 8908,
 "वन्य": 8909,
 "నియమించబడిన": 8910,
 "védi": 8911,
 "वन्यजी": 8912,
 "నిడివిలో": 8913,
 "védica": 8914,
 "वन्यजीव": 8915,
 "నిడివిని": 8916,
 "vocion": 8917,
 "ल्लेख": 8918,
 "నికికి": 8919,
 "vocionales": 8920,
 "ल्लेखनीय": 8921,
 "నికలు": 8922,
 "vocab": 8923,
 "ल्पाइन": 8924,
 "నించి": 8925,
 "vocablo": 8926,
 "लौह": 8927,
 "నిషేధం": 8928,
 "violaciones": 8929,
 "लैंड": 8930,
 "నివాసాలు": 8931,
 "videncia": 8932,
 "लैंगि": 8933,
 "నివారిస్తారు": 8934,
 "viii": 8935,
 "लैंगिक": 8936,
 "నివల్ల": 8937,
 "vii": 8938,
 "लेख": 8939,
 "నిలిచింది": 8940,
 "vieron": 8941,
 "लेखन": 8942,
 "నిలబెట్టుకున్నాయి": 8943,
 "vien": 8944,
 "लूटना": 8945,
 "నిర్వాహక": 8946,
 "viene": 8947,
 "लुवाँ": 8948,
 "నిర్మిస్తున్న": 8949,
 "vestig": 8950,
 "लीभा": 8951,
 "నిరక్షరాస్యత": 8952,
 "vestigadores": 8953,
 "लीभाली": 8954,
 "నియోలిథిక్": 8955,
 "vers": 8956,
 "लीबंगा": 8957,
 "నిపించింది": 8958,
 "versidades": 8959,
 "लीपीं": 8960,
 "నిచ్చింది": 8961,
 "vela": 8962,
 "लीपींस": 8963,
 "నాయకత్వా": 8964,
 "vastos": 8965,
 "लिप्य": 8966,
 "నాయకత్వాన": 8967,
 "vastación": 8968,
 "लिप्यन्त": 8969,
 "నాయకత్వంలో": 8970,
 "vadi": 8971,
 "लिप्यन्तरण": 8972,
 "నాగరికతకు": 8973,
 "vadieron": 8974,
 "लितों": 8975,
 "నాలకు": 8976,
 "vó": 8977,
 "लिखि": 8978,
 "నాయకుల": 8979,
 "voci": 8980,
 "लिखित": 8981,
 "నాది": 8982,
 "voción": 8983,
 "लिख": 8984,
 "నాటి": 8985,
 "visit": 8986,
 "लावीरा": 8987,
 "నడిపించవచ్చని": 8988,
 "visitada": 8989,
 "लायक": 8990,
 "నడిపించటం": 8991,
 "vand": 8992,
 "लाओ": 8993,
 "నడిపించట": 8994,
 "vande": 8995,
 "लाओस": 8996,
 "నడిపించటమూ": 8997,
 "vado": 8998,
 "लड़ाई": 8999,
 "నడిపించి": 9000,
 "utónomas": 9001,
 "लड़ाइ": 9002,
 "నడిపించాల": 9003,
 "utam": 9004,
 "लड़ाइयाँ": 9005,
 "నడిపించాలనే": 9006,
 "utama": 9007,
 "लगती": 9008,
 "నడిపిస్తామని": 9009,
 "usieron": 9010,
 "लम्बे": 9011,
 "నగరాలనే": 9012,
 "urb": 9013,
 "लब": 9014,
 "నగరాలనుండి": 9015,
 "urbador": 9016,
 "लनों": 9017,
 "నంద్": 9018,
 "upaciones": 9019,
 "लद": 9020,
 "నందిన": 9021,
 "unciado": 9022,
 "लदलों": 9023,
 "నబడిన": 9024,
 "unciación": 9025,
 "लत": 9026,
 "నప్పటికినీ": 9027,
 "unéi": 9028,
 "लगे": 9029,
 "నపద": 9030,
 "uni": 9031,
 "लगी": 9032,
 "నదులు": 9033,
 "universidades": 9034,
 "र्वोत्त": 9035,
 "నత": 9036,
 "uncia": 9037,
 "र्वोत्तर": 9038,
 "ధ్యాత్మి": 9039,
 "umbia": 9040,
 "र्वाह": 9041,
 "ధ్యాత్మికత": 9042,
 "umentos": 9043,
 "र्यावर्त": 9044,
 "ధుమ": 9045,
 "uditos": 9046,
 "र्यन": 9047,
 "ధునిక": 9048,
 "uct": 9049,
 "र्मिक": 9050,
 "ధిపత్యం": 9051,
 "ucturas": 9052,
 "र्धारण": 9053,
 "ధినేత": 9054,
 "ucionado": 9055,
 "र्धान": 9056,
 "ధరిస్తారు": 9057,
 "uces": 9058,
 "र्तगा": 9059,
 "ధరించే": 9060,
 "ucesor": 9061,
 "र्तगाल": 9062,
 "ద్వైపాక్షిక": 9063,
 "ubicada": 9064,
 "र्कटि": 9065,
 "ద్వీపే": 9066,
 "ubica": 9067,
 "र्कटिका": 9068,
 "ద్వీపకల్పం": 9069,
 "uvieron": 9070,
 "रोम": 9071,
 "ద్వీపం": 9072,
 "ujeron": 9073,
 "रेस्ट": 9074,
 "ద్వీప": 9075,
 "transm": 9076,
 "रूपण": 9077,
 "ద్విసభా": 9078,
 "transmisión": 9079,
 "रूपी": 9080,
 "ద్రీకృ": 9081,
 "trad": 9082,
 "रुत्थान": 9083,
 "ద్రీకృతమై": 9084,
 "tradujeron": 9085,
 "रुणा": 9086,
 "ద్రావిడ": 9087,
 "tomar": 9088,
 "रुणाचल": 9089,
 "ద్రాల్లో": 9090,
 "tomaron": 9091,
 "रीबन": 9092,
 "ద్భవించినవే": 9093,
 "terioro": 9094,
 "रीति": 9095,
 "ద్దిభాగం": 9096,
 "teriormente": 9097,
 "रीतिरि": 9098,
 "దైనందిన": 9099,
 "terj": 9100,
 "रीतिरिवाजों": 9101,
 "దేశాలకూ": 9102,
 "terji": 9103,
 "रिय": 9104,
 "దేశాల్లోనూ": 9105,
 "templos": 9106,
 "रियड": 9107,
 "దేశాలతో": 9108,
 "templo": 9109,
 "रिप": 9110,
 "దేశాలకు": 9111,
 "teg": 9112,
 "रिपब्लि": 9113,
 "దేశాన్ని": 9114,
 "tegidos": 9115,
 "रिपब्लिक्": 9116,
 "దేశాధినేత": 9117,
 "tail": 9118,
 "रिक्ष": 9119,
 "దేశరాజకీయాల్లో": 9120,
 "tailandi": 9121,
 "राष्ट्रवादी": 9122,
 "దేశమంతటా": 9123,
 "tailandia": 9124,
 "राष्ट्रपि": 9125,
 "దృష్ట్యా": 9126,
 "turbador": 9127,
 "राष्ट्रपिता": 9128,
 "దుస్తులు": 9129,
 "tieron": 9130,
 "राजशाही": 9131,
 "దులో": 9132,
 "tantes": 9133,
 "राजघ": 9134,
 "దుర్కొంటున్నది": 9135,
 "tando": 9136,
 "राजघरा": 9137,
 "దుపరి": 9138,
 "tam": 9139,
 "राजघरानो": 9140,
 "దీపావళి": 9141,
 "tamaños": 9142,
 "राजगु": 9143,
 "దీన్ని": 9144,
 "sínd": 9145,
 "राजगुरू": 9146,
 "దీనివల్ల": 9147,
 "surgió": 9148,
 "राजक": 9149,
 "దీనికి": 9150,
 "surgir": 9151,
 "राजकता": 9152,
 "దించిన": 9153,
 "superfic": 9154,
 "रान": 9155,
 "దిరా": 9156,
 "superficie": 9157,
 "राधिका": 9158,
 "దినాలకు": 9159,
 "supera": 9160,
 "राधिकारी": 9161,
 "దిగ్భా": 9162,
 "sudoriental": 9163,
 "रचनाकाल": 9164,
 "దిగ్భాగే": 9165,
 "subsist": 9166,
 "रहीं": 9167,
 "దిగువ": 9168,
 "subsistencia": 9169,
 "रवरी": 9170,
 "దికి": 9171,
 "subord": 9172,
 "रम्भ": 9173,
 "దాదాపుగా": 9174,
 "subordinación": 9175,
 "रचा": 9176,
 "దాయం": 9177,
 "suje": 9178,
 "रखी": 9179,
 "దాటే": 9180,
 "sujetos": 9181,
 "यूना": 9182,
 "దాటేసింది": 9183,
 "sug": 9184,
 "यूनानी": 9185,
 "దాటి": 9186,
 "sugi": 9187,
 "युगी": 9188,
 "దాటిన": 9189,
 "sugiere": 9190,
 "युगीन": 9191,
 "దక్షిణాదికి": 9192,
 "sufre": 9193,
 "यिओं": 9194,
 "దక్షిణదిగ్భాగే": 9195,
 "stán": 9196,
 "यांत": 9197,
 "దండా": 9198,
 "stuvieron": 9199,
 "यांतरित": 9200,
 "దండ": 9201,
 "stru": 9202,
 "यायिओं": 9203,
 "దండయాత్రలతో": 9204,
 "struidos": 9205,
 "यमु": 9206,
 "దసరా": 9207,
 "stos": 9208,
 "यमुना": 9209,
 "దశలో": 9210,
 "sometió": 9211,
 "यता": 9212,
 "దర్శకుడైన": 9213,
 "socied": 9214,
 "म्यांमा": 9215,
 "దరూ": 9216,
 "sociedades": 9217,
 "म्यांमार": 9218,
 "దగ్గ": 9219,
 "soberano": 9220,
 "म्यान्मा": 9221,
 "దగ్గరలో": 9222,
 "sostuvieron": 9223,
 "म्यान्मार": 9224,
 "దగినది": 9225,
 "sitios": 9226,
 "म्पनी": 9227,
 "దక్ష": 9228,
 "sistemas": 9229,
 "मोहनजो": 9230,
 "దక్షణా": 9231,
 "sinónimo": 9232,
 "मोहनजोद": 9233,
 "దక్షణాసియాలో": 9234,
 "sintieron": 9235,
 "मोहनजोदड़ो": 9236,
 "దక్క": 9237,
 "sincr": 9238,
 "मोहिनी": 9239,
 "దక్కను": 9240,
 "sincrética": 9241,
 "मोत्पत्ति": 9242,
 "థాలు": 9243,
 "significativos": 9244,
 "मोड़": 9245,
 "థార్": 9246,
 "significativ": 9247,
 "मोड़दार": 9248,
 "థానే": 9249,
 "significativas": 9250,
 "मैकाल": 9251,
 "త్సాహంగా": 9252,
 "signat": 9253,
 "मेहरगढ़": 9254,
 "త్వానికి": 9255,
 "signataria": 9256,
 "मेहमान": 9257,
 "త్వంగల": 9258,
 "shaiv": 9259,
 "मुस्लिमों": 9260,
 "త్వరలోనే": 9261,
 "shaivita": 9262,
 "मुख्यत": 9263,
 "త్రాలు": 9264,
 "sexta": 9265,
 "मुंहबोला": 9266,
 "త్రమాలిక": 9267,
 "separ": 9268,
 "मुक्त": 9269,
 "త్తాధిపత్యం": 9270,
 "separadas": 9271,
 "मीक": 9272,
 "త్కృష్టమైన": 9273,
 "salvó": 9274,
 "मिलते": 9275,
 "తేలికేననీ": 9276,
 "sacer": 9277,
 "मिलती": 9278,
 "తెలిసింది": 9279,
 "sacerd": 9280,
 "मिलता": 9281,
 "తెప్పించుకోవడానికి": 9282,
 "sacerdot": 9283,
 "मिमी": 9284,
 "తూర్పున": 9285,
 "sacerdotes": 9286,
 "मिक": 9287,
 "తున్నవార్లలో": 9288,
 "séptimo": 9289,
 "मानना": 9290,
 "తురుష్కుల": 9291,
 "sucesor": 9292,
 "मार्ग": 9293,
 "తుపవనాలు": 9294,
 "sen": 9295,
 "माउं": 9296,
 "తీయాదాయంలో": 9297,
 "senal": 9298,
 "माउंट": 9299,
 "తిహాసాలపై": 9300,
 "sem": 9301,
 "महीना": 9302,
 "తిరుగుబాటు": 9303,
 "semin": 9304,
 "महावीर": 9305,
 "తిరిగే": 9306,
 "seminarios": 9307,
 "महाभारत": 9308,
 "తారతమ్యాలున్నాయి": 9309,
 "sed": 9310,
 "महापुरा": 9311,
 "తాబునిస్తున్నారు": 9312,
 "sedent": 9313,
 "महापुराण": 9314,
 "తాజ్‌మ": 9315,
 "sedentaria": 9316,
 "महादेव": 9317,
 "తాజ్‌మహల్": 9318,
 "san": 9319,
 "महाजन": 9320,
 "తర్వాతి": 9321,
 "sanātana": 9322,
 "महाजनप": 9323,
 "తర్వాత": 9324,
 "sag": 9325,
 "महाजनपद": 9326,
 "తరులు": 9327,
 "sagrado": 9328,
 "महाका": 9329,
 "తరత": 9330,
 "rápidos": 9331,
 "महाकाव्य": 9332,
 "తరతరాలుగా": 9333,
 "rutas": 9334,
 "मलेशिया": 9335,
 "తమిళనాడుకు": 9336,
 "rocin": 9337,
 "मनुष्य": 9338,
 "తనలో": 9339,
 "rocinadores": 9340,
 "मध्ययुगीन": 9341,
 "తలంపుతో": 9342,
 "rituras": 9343,
 "मध्यम": 9344,
 "తరించింది": 9345,
 "rieg": 9346,
 "मध्यकाल": 9347,
 "తదుపరి": 9348,
 "riego": 9349,
 "मतलब": 9350,
 "తత్వానికి": 9351,
 "reyes": 9352,
 "मतभे": 9353,
 "తత్వ": 9354,
 "resultante": 9355,
 "मतभेद": 9356,
 "తగ్గి": 9357,
 "resión": 9358,
 "मंदि": 9359,
 "తగ్గిపోయింది": 9360,
 "residi": 9361,
 "मंदिरों": 9362,
 "తక్కు": 9363,
 "residieron": 9364,
 "मंगो": 9365,
 "తక్కువే": 9366,
 "renovado": 9367,
 "मंगोलों": 9368,
 "ణ్వస్త్ర": 9369,
 "renovación": 9370,
 "महिलाओं": 9371,
 "ణిముత్యం": 9372,
 "renunciación": 9373,
 "मसिहा": 9374,
 "ణితం": 9375,
 "renuncia": 9376,
 "मबे": 9377,
 "డ్యచి": 9378,
 "registrada": 9379,
 "मबेट": 9380,
 "డ్యచిత్రాలు": 9381,
 "referían": 9382,
 "मबेटका": 9383,
 "డుంబిళ్ళ": 9384,
 "reconocen": 9385,
 "मन्तु": 9386,
 "డుతున్నవార్లలో": 9387,
 "reale": 9388,
 "मठ": 9389,
 "డుట": 9390,
 "realeza": 9391,
 "मज़": 9392,
 "డుటచే": 9393,
 "revela": 9394,
 "मज़बूत": 9395,
 "డించి": 9396,
 "restos": 9397,
 "मई": 9398,
 "డిస్సీ": 9399,
 "refi": 9400,
 "भ्रष्टाचार": 9401,
 "డాలు": 9402,
 "refiere": 9403,
 "भौगो": 9404,
 "డాలర్లు": 9405,
 "ref": 9406,
 "भौगोलिक": 9407,
 "డారి": 9408,
 "refle": 9409,
 "भोलीभाली": 9410,
 "డవస్థానంలో": 9411,
 "reflejó": 9412,
 "भूसन्नति": 9413,
 "డబుల్స్": 9414,
 "recha": 9415,
 "भूटा": 9416,
 "ట్‌సొర్సింగ్": 9417,
 "rechazando": 9418,
 "भूटान": 9419,
 "ట్రాఫిక్": 9420,
 "runéi": 9421,
 "भूगोल": 9422,
 "ట్టడాలు": 9423,
 "ructuras": 9424,
 "भुत्वों": 9425,
 "టైటిళ్ళు": 9426,
 "rom": 9427,
 "भीमबेटका": 9428,
 "టైటిల్": 9429,
 "romano": 9430,
 "भाती": 9431,
 "టైనెర్": 9432,
 "rast": 9433,
 "भागों": 9434,
 "టెహ్రాన్": 9435,
 "rastros": 9436,
 "भगत": 9437,
 "టెన్నిస్లో": 9438,
 "rar": 9439,
 "भरत": 9440,
 "టెక్నా": 9441,
 "quetar": 9442,
 "भजन": 9443,
 "టెక్నాలజీ": 9444,
 "queol": 9445,
 "ब्रिटे": 9446,
 "టికంటే": 9447,
 "queológica": 9448,
 "ब्रिटेन": 9449,
 "టార్క్‌టికాలో": 9450,
 "quien": 9451,
 "ब्बत": 9452,
 "టాగో": 9453,
 "quienes": 9454,
 "बौद्धि": 9455,
 "టాగోర్": 9456,
 "propias": 9457,
 "बौद्धिक": 9458,
 "టర్లపై": 9459,
 "proble": 9460,
 "बोस": 9461,
 "టంతో": 9462,
 "problemas": 9463,
 "बोडिया": 9464,
 "టండ్రా": 9465,
 "proviene": 9466,
 "बेसिन": 9467,
 "టలు": 9468,
 "protegidos": 9469,
 "बेड": 9470,
 "జౌళి": 9471,
 "prog": 9472,
 "बेडकर": 9473,
 "జోన్లుగా": 9474,
 "progresión": 9475,
 "बूद्वीप": 9476,
 "జోక్యం": 9477,
 "principio": 9478,
 "बुद्ध": 9479,
 "జైనులు": 9480,
 "prepar": 9481,
 "बीसवीं": 9482,
 "జైన": 9483,
 "preparando": 9484,
 "बीसवी": 9485,
 "జీవితంలో": 9486,
 "pron": 9487,
 "बांटे": 9488,
 "జిల్లా": 9489,
 "pronunciado": 9490,
 "बांग्ला": 9491,
 "జాబితాలో": 9492,
 "promet": 9493,
 "बांग्लादेश": 9494,
 "జాతిపిత": 9495,
 "prometió": 9496,
 "बाँगर": 9497,
 "జానపద": 9498,
 "posteri": 9499,
 "बाहर": 9500,
 "జాతీయాదాయంలో": 9501,
 "posteriores": 9502,
 "बासाहेब": 9503,
 "జరుపుకు": 9504,
 "postular": 9505,
 "बाबासाहेब": 9506,
 "జరుపుకునే": 9507,
 "poseía": 9508,
 "बाजा": 9509,
 "జరిగిం": 9510,
 "portaron": 9511,
 "बाजार": 9512,
 "జరిగింది": 9513,
 "polític": 9514,
 "बहुधा": 9515,
 "జరిగా": 9516,
 "políticamente": 9517,
 "बहुधार्मिक": 9518,
 "జరిగాయి": 9519,
 "poseen": 9520,
 "बहुजातीय": 9521,
 "జన్మస్థానం": 9522,
 "plural": 9523,
 "बनाता": 9524,
 "జన్మనిచ్చింది": 9525,
 "permanentes": 9526,
 "बदलती": 9527,
 "జన్మదినాలకు": 9528,
 "perturbador": 9529,
 "बदला": 9530,
 "జనాభాలో": 9531,
 "permit": 9532,
 "बढ़ते": 9533,
 "జనగణ": 9534,
 "permitiría": 9535,
 "बहाने": 9536,
 "జనగణన": 9537,
 "peradores": 9538,
 "बस्तियों": 9539,
 "చోళులు": 9540,
 "península": 9541,
 "बल्कि": 9542,
 "చైనాతో": 9543,
 "pej": 9544,
 "बम": 9545,
 "చేయలేదు": 9546,
 "pejadas": 9547,
 "बदौ": 9548,
 "చేయబడింది": 9549,
 "patrocinadores": 9550,
 "बदौलत": 9551,
 "చేయడానికి": 9552,
 "pastores": 9553,
 "फैलाई": 9554,
 "చేయటంతో": 9555,
 "paso": 9556,
 "फूले": 9557,
 "చేసే": 9558,
 "pasaron": 9559,
 "फिलीपींस": 9560,
 "చేసుకోవడంతో": 9561,
 "partici": 9562,
 "फाएँ": 9563,
 "చేర": 9564,
 "participar": 9565,
 "फ़िल्में": 9566,
 "చేయిస్తారు": 9567,
 "participaron": 9568,
 "फ़रवरी": 9569,
 "చేత": 9570,
 "pala": 9571,
 "फलस्वरुप": 9572,
 "చెప్పుకోవ": 9573,
 "pájaro": 9574,
 "फले": 9575,
 "చెప్పుకోవచ్చు": 9576,
 "pens": 9577,
 "फगा": 9578,
 "చెప్పుకో": 9579,
 "pensó": 9580,
 "फगानि": 9581,
 "చెప్పుకోదగినది": 9582,
 "pav": 9583,
 "फगानिस्तान": 9584,
 "చెందింది": 9585,
 "pavo": 9586,
 "प्रैल": 9587,
 "చెంది": 9588,
 "originaron": 9589,
 "प्रशस्त": 9590,
 "చెన్నై": 9591,
 "opusieron": 9592,
 "प्रवेश": 9593,
 "చూసింది": 9594,
 "ongol": 9595,
 "प्रभुत्वों": 9596,
 "చూపబడింది": 9597,
 "ongoles": 9598,
 "प्रपा": 9599,
 "చుట్టూ": 9600,
 "oner": 9601,
 "प्रपाती": 9602,
 "చుకు": 9603,
 "onerse": 9604,
 "प्रदू": 9605,
 "చుకున్నారు": 9606,
 "omod": 9607,
 "प्रदूषण": 9608,
 "చీర": 9609,
 "omodaron": 9610,
 "प्रथा": 9611,
 "చిహ్నాలు": 9612,
 "ominación": 9613,
 "प्रत्या": 9614,
 "చిరు": 9615,
 "olig": 9616,
 "प्रत्यावर्तन": 9617,
 "చిపూడి": 9618,
 "oligarquías": 9619,
 "प्रक": 9620,
 "చిత్రమాలిక": 9621,
 "ociadas": 9622,
 "प्रकट": 9623,
 "చారిత్రకంగా": 9624,
 "ocupaciones": 9625,
 "पोषण": 9626,
 "చారిత్రక": 9627,
 "ocas": 9628,
 "पैमानों": 9629,
 "చాళుక్యులు": 9630,
 "ocasiones": 9631,
 "पेटी": 9632,
 "చారాలు": 9633,
 "olead": 9634,
 "पूर्णतः": 9635,
 "చవితి": 9636,
 "oleadas": 9637,
 "पूरी": 9638,
 "చవిచూసింది": 9639,
 "nia": 9640,
 "पुनरुत्थान": 9641,
 "చరిత్రలో": 9642,
 "nepalí": 9643,
 "पुर्वोत्तर": 9644,
 "చదరంగము": 9645,
 "nómadas": 9646,
 "पुर्तगाल": 9647,
 "చదరంగంలో": 9648,
 "multiétnica": 9649,
 "पीरियड": 9650,
 "చవచ్చు": 9651,
 "multil": 9652,
 "पातकाल": 9653,
 "చమురు": 9654,
 "multiling": 9655,
 "पांड्यों": 9656,
 "చక్ర": 9657,
 "multilingüe": 9658,
 "पांड्य": 9659,
 "చక్రవర్తి": 9660,
 "movimientos": 9661,
 "पाँचवी": 9662,
 "ఘోర": 9663,
 "movil": 9664,
 "पाषाण": 9665,
 "ఘర్షణను": 9666,
 "movilidad": 9667,
 "पालना": 9668,
 "ఘనత": 9669,
 "mostrar": 9670,
 "पार्थी": 9671,
 "గ్లేయులు": 9672,
 "monásticas": 9673,
 "पाता": 9674,
 "గ్లండు": 9675,
 "monumentos": 9676,
 "पाए": 9677,
 "గ్రీకులు": 9678,
 "monarquías": 9679,
 "पहुँचे": 9680,
 "గ్రాండ్": 9681,
 "modernas": 9682,
 "पहुँच": 9683,
 "గ్రామ": 9684,
 "militarismo": 9685,
 "पहाडि": 9686,
 "గ్రంథాలు": 9687,
 "milen": 9688,
 "पहाडियाँ": 9689,
 "గ్నేయ": 9690,
 "milenio": 9691,
 "पहाड़ों": 9692,
 "గ్డమ్": 9693,
 "mediados": 9694,
 "पहला": 9695,
 "గౌరవిస్తారు": 9696,
 "meg": 9697,
 "पर्वतीय": 9698,
 "గోదావరీ": 9699,
 "megal": 9700,
 "परिस्थितियों": 9701,
 "గోదావరి": 9702,
 "megalíticos": 9703,
 "परिवर्तनों": 9704,
 "గోళ": 9705,
 "matem": 9706,
 "परान्त": 9707,
 "గోధుమ": 9708,
 "matemáticas": 9709,
 "पराजित": 9710,
 "గోత్రి": 9711,
 "matar": 9712,
 "परंपराओं": 9713,
 "గోడుంబిళ్ళ": 9714,
 "mataram": 9715,
 "पनिवेशिक": 9716,
 "గెలిచిన": 9717,
 "mania": 9718,
 "पल्ल्वों": 9719,
 "గుర్తింపు": 9720,
 "malasia": 9721,
 "पनी": 9722,
 "గుర్తించింది": 9723,
 "maha": 9724,
 "पत्य": 9725,
 "గుర్తించవచ్చు": 9726,
 "mahajan": 9727,
 "पत्थ": 9728,
 "గుమతి": 9729,
 "mahajanap": 9730,
 "पत्थर": 9731,
 "గుప్తులకాలం": 9732,
 "mahajanapadas": 9733,
 "पत": 9734,
 "గుత్తాధిపత్యం": 9735,
 "mac": 9736,
 "पतन": 9737,
 "గిల్లీ": 9738,
 "macen": 9739,
 "न्नौज": 9740,
 "గిన్నె": 9741,
 "macenamiento": 9742,
 "नौति": 9743,
 "గాంచిన": 9744,
 "mó": 9745,
 "नौतियाँ": 9746,
 "గలుపు": 9747,
 "místicos": 9748,
 "नेदार": 9749,
 "గమనికలు": 9750,
 "mongoles": 9751,
 "नेता": 9752,
 "గమనించి": 9753,
 "mag": 9754,
 "नेताजी": 9755,
 "గంగోత్రి": 9756,
 "magad": 9757,
 "नीव": 9758,
 "గంగ": 9759,
 "magadha": 9760,
 "नीची": 9761,
 "గష్టు": 9762,
 "lograron": 9763,
 "नीक": 9764,
 "గమించి": 9765,
 "llegaron": 9766,
 "निरपेक्षता": 9767,
 "గనులు": 9768,
 "llegado": 9769,
 "नियंत्रि": 9770,
 "గణితం": 9771,
 "llanuras": 9772,
 "नियंत्रित": 9773,
 "ఖండం": 9774,
 "libres": 9775,
 "नियंत्र": 9776,
 "ఖర్చుతో": 9777,
 "levó": 9778,
 "नियंत्रण": 9779,
 "ఖగోళ": 9780,
 "levant": 9781,
 "निम्नवत": 9782,
 "క్షరబద్ధం": 9783,
 "levantando": 9784,
 "निम्नलिखित": 9785,
 "క్రైస్తవులు": 9786,
 "legen": 9787,
 "निर्वाह": 9788,
 "క్రీడల": 9789,
 "legendar": 9790,
 "निर्धारण": 9791,
 "క్రమంగా": 9792,
 "legendario": 9793,
 "निरूपण": 9794,
 "క్యారమ్‌": 9795,
 "llevó": 9796,
 "निभाती": 9797,
 "క్కొక్క": 9798,
 "laron": 9799,
 "निक्षेप": 9800,
 "క్కొక్కటే": 9801,
 "kannau": 9802,
 "नामक": 9803,
 "క్కువైపోతున్నప్పటికీ": 9804,
 "kannauj": 9805,
 "नामोत्पत्ति": 9806,
 "కోర్టులకు": 9807,
 "km": 9808,
 "नवरों": 9809,
 "కోసం": 9810,
 "kim": 9811,
 "नसुलझे": 9812,
 "కోవారంటో": 9813,
 "kimch": 9814,
 "नम": 9815,
 "కోల్‌కాతా": 9816,
 "kimchand": 9817,
 "rank": 9818,
 "नकल": 9819,
 "కోల్పోతూ": 9820,
 "kimchandra": 9821,
 "ranks": 9822,
 "ध्रुवीय": 9823,
 "కొనబడిన": 9824,
 "kali": 9825,
 "rāmāyaṇa": 9826,
 "ध्यात्मि": 9827,
 "కొద్దిభాగం": 9828,
 "kalibang": 9829,
 "ruction": 9830,
 "ध्यात्मिक": 9831,
 "కొత్త": 9832,
 "kalibangan": 9833,
 "rising": 9834,
 "ध्यात": 9835,
 "కేంద్రీకృతమై": 9836,
 "juda": 9837,
 "ध्यातव्य": 9838,
 "కేంద్రాల్లో": 9839,
 "judaísmo": 9840,
 "rig": 9841,
 "धोलावीरा": 9842,
 "కృష్ణా": 9843,
 "jefaturas": 9844,
 "rak": 9845,
 "धर्मनिरपेक्षता": 9846,
 "కృష్ణ": 9847,
 "jefatura": 9848,
 "rakh": 9849,
 "धम्म": 9850,
 "కూడుకొనినప్పటికినీ": 9851,
 "jíndu": 9852,
 "rakhig": 9853,
 "धक्के": 9854,
 "కూడుకున్నది": 9855,
 "izado": 9856,
 "rakhigar": 9857,
 "द्वितीय": 9858,
 "కూడినది": 9859,
 "izada": 9860,
 "rakhigarhi": 9861,
 "द्रोणी": 9862,
 "కూచిపూడి": 9863,
 "itamiento": 9864,
 "quest": 9865,
 "द्रित": 9866,
 "కుటుంబాలు": 9867,
 "itados": 9868,
 "pronoun": 9869,
 "द्रशेखर": 9870,
 "కుటుంబాలకు": 9871,
 "islámico": 9872,
 "pronounced": 9873,
 "द्धव": 9874,
 "కుండా": 9875,
 "islámica": 9876,
 "promot": 9877,
 "देवता": 9878,
 "కుంటుంది": 9879,
 "iséis": 9880,
 "promote": 9881,
 "दृष्टिको": 9882,
 "కులం": 9883,
 "irmó": 9884,
 "promised": 9885,
 "दृष्टिकोण": 9886,
 "కుర్తా": 9887,
 "irmania": 9888,
 "producing": 9889,
 "दुसरे": 9890,
 "కుమార్తె": 9891,
 "irió": 9892,
 "province": 9893,
 "दुपरान्त": 9894,
 "కుమారుడు": 9895,
 "ipin": 9896,
 "prepared": 9897,
 "दावरी": 9898,
 "కుడ్యచిత్రాలు": 9899,
 "ipinas": 9900,
 "preexisting": 9901,
 "दानेदार": 9902,
 "కిందట": 9903,
 "intentaron": 9904,
 "predomin": 9905,
 "दर्शन": 9906,
 "కింగ్డమ్": 9907,
 "inici": 9908,
 "predominant": 9909,
 "दक्षिणी": 9910,
 "కితాబునిస్తున్నారు": 9911,
 "iniciat": 9912,
 "predominantly": 9913,
 "दंगा": 9914,
 "కాశ్మీర్": 9915,
 "iniciativa": 9916,
 "proper": 9917,
 "दलितों": 9918,
 "కాశ్మీరు": 9919,
 "ingreso": 9920,
 "porary": 9921,
 "दलदलों": 9922,
 "కాలేజీ": 9923,
 "influir": 9924,
 "pottery": 9925,
 "दर्जा": 9926,
 "కాలేజి": 9927,
 "indígenas": 9928,
 "poe": 9929,
 "दक्क्न": 9930,
 "కార్యక్రమాలలో": 9931,
 "indígena": 9932,
 "poetry": 9933,
 "थीस": 9934,
 "కార్యనిర్వాహక": 9935,
 "indoí": 9936,
 "plements": 9937,
 "थाई": 9938,
 "కాపాడుకుంటూనే": 9939,
 "indoislámica": 9940,
 "pluralistic": 9941,
 "थाईलैंड": 9942,
 "కాంగ్రెసును": 9943,
 "indogang": 9944,
 "plants": 9945,
 "त्रीकरण": 9946,
 "కాంగ్రెసేతర": 9947,
 "indogangética": 9948,
 "plann": 9949,
 "त्रिमोहिनी": 9950,
 "కావడం": 9951,
 "indicada": 9952,
 "planning": 9953,
 "त्याचार": 9954,
 "కాలాల్లో": 9955,
 "independientes": 9956,
 "penditure": 9957,
 "त्याग": 9958,
 "కాలపరిమితికి": 9959,
 "indúes": 9960,
 "partitioned": 9961,
 "त्यंत": 9962,
 "కార్పస్": 9963,
 "investigadores": 9964,
 "pāṇini": 9965,
 "त्मक": 9966,
 "కాయ": 9967,
 "invadieron": 9968,
 "pill": 9969,
 "त्पन्न": 9970,
 "కానీ": 9971,
 "instruidos": 9972,
 "pillar": 9973,
 "तौर": 9974,
 "కాకుండా": 9975,
 "ino": 9976,
 "ped": 9977,
 "तेज": 9978,
 "కాక": 9979,
 "inast": 9980,
 "ours": 9981,
 "तुलनात्मक": 9982,
 "కలిసివస్తుందని": 9983,
 "inastías": 9984,
 "ounded": 9985,
 "तीसरा": 9986,
 "కలిగిన": 9987,
 "impuras": 9988,
 "ounder": 9989,
 "तिब्बत": 9990,
 "కలగలుపు": 9991,
 "imponerse": 9992,
 "ossil": 9993,
 "तांत्रिकता": 9994,
 "కలక": 9995,
 "imología": 9996,
 "ossils": 9997,
 "ताम्र": 9998,
 "కలకత్తా": 9999
}